<pad>	0
<unk>	0
<s>	0
</s>	0
.	-3.01422
,	-3.20365
▁the	-3.44253
s	-3.56791
▁to	-3.92335
'	-3.92864
▁of	-4.06435
▁a	-4.07138
▁and	-4.15397
▁you	-4.30649
▁in	-4.37485
▁I	-4.46916
▁is	-4.78266
▁-	-4.83727
▁that	-4.84711
t	-4.92083
▁it	-5.0305
?	-5.13754
▁for	-5.15698
▁your	-5.18197
▁	-5.20372
▁with	-5.35438
▁n	-5.36841
▁on	-5.38254
▁was	-5.42552
▁be	-5.48801
▁are	-5.54089
▁have	-5.59728
▁or	-5.62503
▁as	-5.63102
▁do	-5.63468
re	-5.68077
▁The	-5.68247
▁this	-5.69323
▁can	-5.73672
ing	-5.75285
▁You	-5.76166
▁not	-5.79186
▁we	-5.8219
▁(	-5.85416
m	-5.89163
▁"	-5.89633
▁by	-5.9353
▁from	-5.94455
▁me	-5.95702
▁at	-5.96051
d	-5.96505
)	-6.01099
▁an	-6.03321
ed	-6.05784
▁It	-6.10601
▁will	-6.19423
▁he	-6.20718
▁they	-6.21817
▁about	-6.21839
▁what	-6.27065
▁one	-6.27294
▁And	-6.27476
▁my	-6.28026
▁all	-6.32281
▁like	-6.32959
▁her	-6.3338
▁out	-6.33726
▁but	-6.35049
▁know	-6.37001
▁up	-6.37285
ll	-6.39214
▁if	-6.39221
▁has	-6.46871
!	-6.50415
▁so	-6.51183
▁just	-6.5131
▁get	-6.52788
▁more	-6.54279
▁In	-6.54575
▁We	-6.55386
▁time	-6.55997
▁she	-6.57977
:	-6.59115
▁A	-6.59902
▁If	-6.60565
▁there	-6.61492
▁were	-6.62484
ve	-6.63698
▁his	-6.65286
▁them	-6.65319
▁which	-6.65409
▁when	-6.67329
"	-6.67994
▁This	-6.69076
▁who	-6.70353
▁He	-6.7142
▁their	-6.71811
ly	-6.71958
▁want	-6.72304
▁him	-6.73366
▁also	-6.74009
▁people	-6.74689
▁had	-6.75647
▁been	-6.76342
▁other	-6.76923
▁here	-6.77402
▁would	-6.77898
y	-6.78333
...	-6.79028
▁did	-6.81586
▁may	-6.85173
er	-6.86281
e	-6.86692
▁So	-6.86716
▁think	-6.88667
▁into	-6.89334
▁make	-6.89441
▁some	-6.90048
▁But	-6.90169
▁no	-6.9064
▁right	-6.92029
▁go	-6.92688
▁see	-6.93596
▁need	-6.95466
▁She	-6.96048
▁could	-6.98664
▁first	-6.98952
▁over	-6.99537
▁What	-6.99989
▁back	-7.0091
▁than	-7.01502
▁our	-7.0404
▁how	-7.04061
a	-7.07275
▁Do	-7.09392
-	-7.09935
▁way	-7.10693
▁now	-7.10782
▁should	-7.10825
▁us	-7.11943
▁then	-7.12049
▁these	-7.12119
▁two	-7.12215
▁going	-7.13747
▁only	-7.14203
▁got	-7.14919
▁take	-7.15968
▁help	-7.16758
▁They	-7.16922
▁That	-7.18813
▁where	-7.1921
▁--	-7.2225
▁good	-7.23488
▁any	-7.24601
o	-7.26266
al	-7.26709
▁use	-7.27488
▁because	-7.27491
▁down	-7.27733
r	-7.29209
n	-7.29809
▁work	-7.29821
▁after	-7.30388
▁very	-7.30684
es	-7.33871
▁something	-7.34135
▁new	-7.35134
▁most	-7.37428
▁such	-7.38386
▁ca	-7.38596
▁years	-7.39172
▁even	-7.39638
▁day	-7.39887
;	-7.40204
▁before	-7.40254
▁does	-7.41895
th	-7.42488
▁No	-7.42807
▁said	-7.44074
▁life	-7.44421
▁say	-7.44641
▁–	-7.46021
▁much	-7.46022
▁come	-7.46147
▁used	-7.46605
▁There	-7.47412
▁really	-7.47604
▁well	-7.48582
▁its	-7.48667
▁find	-7.50445
▁water	-7.51347
in	-7.51993
▁off	-7.52071
▁through	-7.54335
▁being	-7.55117
i	-7.55358
▁many	-7.5541
▁world	-7.55901
▁too	-7.56224
▁around	-7.57947
▁look	-7.58809
▁things	-7.60352
▁tell	-7.60715
▁man	-7.60739
▁little	-7.6292
▁Well	-7.63277
S	-7.63328
▁those	-7.63665
▁gonna	-7.65213
),	-7.67146
▁feel	-7.67452
▁never	-7.68106
."	-7.68304
▁For	-7.6868
▁still	-7.691
▁made	-7.69356
g	-7.71525
▁long	-7.71596
▁sure	-7.72307
▁let	-7.72847
▁might	-7.73641
▁yourself	-7.74229
▁place	-7.74645
or	-7.74913
▁same	-7.7575
▁thing	-7.76491
▁When	-7.77597
▁give	-7.77876
▁1	-7.78162
▁between	-7.78311
▁year	-7.78779
▁S	-7.79166
▁home	-7.79342
▁name	-7.8017
l	-7.80559
▁person	-7.80888
▁own	-7.8112
▁Now	-7.81444
▁three	-7.81635
▁2	-7.81783
▁part	-7.82528
▁while	-7.83605
▁de	-7.83704
▁How	-7.84464
▁/	-7.86622
▁keep	-7.86647
▁under	-7.87172
▁every	-7.87332
▁doing	-7.88525
▁C	-7.88777
▁3	-7.89001
I	-7.89144
ic	-7.892
▁last	-7.89473
▁each	-7.89561
▁better	-7.90243
▁away	-7.90423
▁different	-7.91782
▁re	-7.92735
▁why	-7.92743
▁talk	-7.93434
▁put	-7.93955
▁love	-7.94271
▁mean	-7.94542
▁body	-7.94548
).	-7.95014
▁called	-7.95611
▁best	-7.96268
c	-7.96305
▁both	-7.96329
▁again	-7.99213
k	-7.99905
▁another	-8.00228
p	-8.00258
▁found	-8.00644
le	-8.00841
▁thought	-8.00897
▁As	-8.01042
▁must	-8.01579
▁number	-8.0257
mi	-8.03048
▁end	-8.03256
▁To	-8.03941
▁during	-8.04621
▁E	-8.04685
▁try	-8.04925
▁few	-8.04929
▁until	-8.05526
▁B	-8.05689
▁family	-8.06375
▁known	-8.06426
▁China	-8.06848
▁important	-8.0687
▁high	-8.07589
▁example	-8.07845
▁My	-8.0789
▁system	-8.08597
▁old	-8.09024
▁10	-8.10123
▁lot	-8.10404
▁Oh	-8.10458
▁always	-8.10568
▁call	-8.114
▁Why	-8.1171
▁left	-8.11769
▁great	-8.1232
▁using	-8.1271
en	-8.12844
▁Your	-8.12888
▁All	-8.12986
▁U	-8.13035
▁anything	-8.13244
an	-8.13271
▁without	-8.13325
▁actually	-8.13544
▁often	-8.14192
▁United	-8.1568
▁18	-8.15827
▁night	-8.15967
▁someone	-8.16379
▁Let	-8.1644
▁D	-8.16693
▁start	-8.1699
▁wo	-8.1789
▁Yeah	-8.18054
▁show	-8.18362
▁un	-8.18585
▁am	-8.19427
▁change	-8.19751
ers	-8.20189
▁kind	-8.20242
▁together	-8.20727
▁side	-8.2073
▁enough	-8.2229
b	-8.23209
h	-8.23403
▁next	-8.2375
A	-8.23902
▁ever	-8.2425
ion	-8.2437
▁small	-8.24682
▁later	-8.24936
▁women	-8.25203
▁M	-8.25676
▁4	-8.25906
▁open	-8.26293
▁against	-8.26441
▁done	-8.26542
▁since	-8.26646
▁On	-8.27387
▁ask	-8.27531
able	-8.28151
C	-8.28404
▁second	-8.28506
▁told	-8.28826
▁school	-8.29095
▁These	-8.29236
▁care	-8.29637
▁skin	-8.29976
▁human	-8.30014
na	-8.30098
▁friend	-8.30874
▁P	-8.30924
▁came	-8.31159
▁believe	-8.31359
▁head	-8.31624
on	-8.3184
▁hair	-8.31875
2	-8.31943
▁area	-8.32055
▁include	-8.32082
▁getting	-8.32137
ra	-8.32429
▁5	-8.32692
▁money	-8.33033
▁within	-8.33036
▁Just	-8.33239
▁able	-8.33648
▁Mr	-8.33848
▁making	-8.33946
▁food	-8.34069
▁government	-8.34407
▁including	-8.34456
▁less	-8.34985
▁O	-8.35103
▁country	-8.35262
▁power	-8.35629
man	-8.36141
▁father	-8.36432
▁days	-8.36514
▁hand	-8.36697
▁States	-8.36774
▁leave	-8.36963
ation	-8.37426
▁blood	-8.37498
▁stop	-8.3763
ity	-8.37734
▁T	-8.37977
▁real	-8.38101
to	-8.38336
▁mind	-8.38501
▁looking	-8.38869
▁doctor	-8.39111
▁Be	-8.39201
▁become	-8.39329
▁One	-8.39333
▁set	-8.39597
ry	-8.39669
▁20	-8.39684
▁children	-8.39687
u	-8.40003
▁point	-8.4009
▁trying	-8.40375
▁face	-8.41141
▁house	-8.41426
▁G	-8.41586
▁car	-8.41685
▁minutes	-8.41703
▁New	-8.4228
▁F	-8.42749
▁big	-8.42784
▁At	-8.43069
▁group	-8.43078
▁men	-8.4319
us	-8.43815
il	-8.43858
▁guy	-8.43889
▁live	-8.43977
▁hard	-8.4407
▁idea	-8.44149
x	-8.44208
F	-8.44311
▁American	-8.44774
▁case	-8.44926
▁having	-8.45017
D	-8.45076
▁After	-8.45104
▁Look	-8.45138
▁control	-8.4527
▁play	-8.45938
▁cause	-8.46482
▁four	-8.46556
▁everything	-8.46648
▁based	-8.46858
el	-8.46858
▁kill	-8.46889
▁Some	-8.4689
▁took	-8.46934
▁today	-8.46999
▁order	-8.47095
▁K	-8.47306
▁problem	-8.47674
▁else	-8.48063
▁wanted	-8.48658
▁already	-8.48668
▁nothing	-8.48833
▁top	-8.48994
B	-8.49124
it	-8.49363
▁understand	-8.49365
ar	-8.49473
▁went	-8.49624
▁once	-8.49733
▁million	-8.49892
▁bad	-8.50111
▁Then	-8.50521
▁least	-8.51129
ne	-8.51228
▁N	-8.51366
▁friends	-8.51408
▁mother	-8.51455
▁light	-8.51726
▁Because	-8.51766
▁room	-8.51903
▁means	-8.52181
▁seen	-8.52484
▁stay	-8.52562
▁possible	-8.52646
▁working	-8.53284
▁coming	-8.53517
▁several	-8.53594
▁five	-8.53639
▁South	-8.53839
▁per	-8.53874
▁However	-8.54394
▁Re	-8.54436
▁times	-8.54547
▁became	-8.54638
▁others	-8.5478
▁information	-8.54833
▁move	-8.55177
▁state	-8.5525
▁social	-8.5539
▁course	-8.55594
▁whole	-8.56003
▁run	-8.56149
▁talking	-8.5631
▁15	-8.56602
▁Are	-8.56617
z	-8.56749
ist	-8.56861
▁job	-8.57002
▁process	-8.57257
▁heart	-8.57294
M	-8.57591
ate	-8.57709
▁free	-8.58187
▁game	-8.5841
Laughter	-8.58525
▁taking	-8.58926
▁Can	-8.59185
▁La	-8.59603
▁business	-8.60182
▁hours	-8.60353
▁war	-8.60425
▁line	-8.60453
ce	-8.60464
▁close	-8.60492
▁6	-8.60699
▁city	-8.60928
ta	-8.61
▁form	-8.61094
▁fact	-8.61364
G	-8.61778
▁girl	-8.6192
▁pain	-8.61956
▁company	-8.61978
▁R	-8.62264
te	-8.62484
ia	-8.6256
▁treatment	-8.62695
▁common	-8.63006
1	-8.63081
▁bit	-8.63095
▁woman	-8.63422
▁team	-8.63732
▁started	-8.63962
ro	-8.63997
P	-8.64113
▁large	-8.64544
▁Did	-8.64705
▁support	-8.64832
ness	-8.64835
▁early	-8.65121
the	-8.65438
▁Hey	-8.65548
▁child	-8.65744
ri	-8.65832
▁12	-8.65853
▁University	-8.65976
ch	-8.65977
ment	-8.66019
▁hear	-8.66116
▁remember	-8.66208
▁Go	-8.66647
▁God	-8.66682
▁turn	-8.66685
ul	-8.66698
▁dead	-8.66995
,"	-8.6709
▁An	-8.67188
▁Make	-8.67312
▁death	-8.67453
▁story	-8.67519
▁oil	-8.67692
▁saw	-8.67719
w	-8.67745
▁okay	-8.67823
▁public	-8.68098
▁ago	-8.68439
▁Not	-8.68957
▁Her	-8.6899
no	-8.69146
T	-8.69238
▁son	-8.69257
▁Where	-8.69321
▁Vietnam	-8.69588
▁far	-8.69592
▁health	-8.69735
▁Poland	-8.69758
ty	-8.69818
ma	-8.69936
▁wrong	-8.70078
▁7	-8.7038
de	-8.7049
▁type	-8.70575
ive	-8.70879
▁half	-8.70951
▁single	-8.71435
▁8	-8.71643
ine	-8.71774
▁L	-8.72166
▁Use	-8.72397
▁Get	-8.72409
▁Try	-8.72567
▁term	-8.72682
▁week	-8.72791
▁usually	-8.72867
▁Chinese	-8.7366
▁local	-8.73696
▁bring	-8.73821
▁due	-8.74014
▁phone	-8.74315
3	-8.74325
▁co	-8.74345
▁Come	-8.74503
▁guys	-8.74596
▁Or	-8.74859
▁rest	-8.74981
▁H	-8.74981
▁age	-8.75005
▁north	-8.75243
co	-8.75264
se	-8.75559
▁likely	-8.75622
ur	-8.75684
▁along	-8.75839
▁countries	-8.75921
▁question	-8.76073
▁born	-8.76256
la	-8.7632
f	-8.76436
▁thinking	-8.76534
▁following	-8.76693
▁space	-8.76729
▁air	-8.76878
▁World	-8.76949
▁village	-8.76961
id	-8.77543
▁risk	-8.77732
▁inside	-8.78355
▁past	-8.78469
ian	-8.78555
▁30	-8.78608
▁Yes	-8.78693
▁months	-8.7899
▁low	-8.79376
▁level	-8.79427
ge	-8.79491
▁May	-8.79586
▁though	-8.79778
▁sleep	-8.79838
▁full	-8.79878
▁17	-8.79909
ism	-8.7995
▁film	-8.79961
▁instead	-8.80333
▁Take	-8.8042
▁brain	-8.80435
▁future	-8.80527
▁Who	-8.80788
▁saying	-8.80811
▁matter	-8.80909
▁either	-8.81164
E	-8.81211
▁probably	-8.8139
▁young	-8.81819
▁self	-8.82079
O	-8.8222
est	-8.82784
▁yet	-8.83073
▁present	-8.83345
▁Al	-8.835
ck	-8.83834
▁book	-8.83896
▁outside	-8.84178
▁happened	-8.84202
ton	-8.84298
▁list	-8.84392
▁meet	-8.84409
▁experience	-8.84484
mo	-8.84679
▁killed	-8.84897
ie	-8.8498
▁short	-8.85117
▁music	-8.85214
▁War	-8.85314
▁language	-8.85476
▁Maybe	-8.85502
▁energy	-8.85513
▁die	-8.85537
▁plan	-8.85572
▁computer	-8.85584
▁century	-8.85775
▁non	-8.85857
▁percent	-8.85964
▁reason	-8.86069
▁political	-8.86143
▁relationship	-8.86441
per	-8.86454
▁late	-8.86698
▁create	-8.86822
H	-8.87037
N	-8.87061
▁De	-8.87214
▁16	-8.87228
▁especially	-8.87256
K	-8.87512
▁lost	-8.87546
▁history	-8.87645
R	-8.87721
lo	-8.87742
▁given	-8.87903
▁law	-8.8793
▁party	-8.88065
▁maybe	-8.88152
▁white	-8.88262
▁makes	-8.88485
▁eyes	-8.88524
ter	-8.88536
▁word	-8.88558
▁hands	-8.8863
▁dog	-8.88877
▁sorry	-8.88913
▁data	-8.88934
▁alone	-8.89248
ni	-8.89415
as	-8.89561
▁lead	-8.89621
▁eye	-8.89792
▁deal	-8.89841
▁hope	-8.89862
▁cut	-8.90363
ling	-8.90448
ting	-8.90605
ous	-8.90739
be	-8.90816
▁released	-8.91036
▁drug	-8.9107
▁hold	-8.91128
tic	-8.91384
▁National	-8.91389
un	-8.9143
▁building	-8.91505
▁rather	-8.9154
▁eat	-8.91767
▁six	-8.91946
▁wife	-8.91972
▁period	-8.91984
▁Okay	-8.92263
▁please	-8.92433
▁heard	-8.92471
▁read	-8.92778
▁pay	-8.92828
▁whether	-8.92898
▁video	-8.92924
me	-8.93303
▁sense	-8.9331
▁study	-8.93405
▁clear	-8.93532
ba	-8.93661
▁soon	-8.93664
▁baby	-8.93735
▁population	-8.93778
▁longer	-8.9403
▁season	-8.94188
▁learn	-8.94333
▁morning	-8.94449
▁knew	-8.94549
▁V	-8.94554
▁position	-8.94731
ki	-8.94761
ary	-8.94997
▁special	-8.95064
▁taken	-8.95086
▁certain	-8.9512
▁test	-8.95389
▁available	-8.95457
em	-8.95494
ga	-8.95974
▁town	-8.96254
ci	-8.96438
ol	-8.96461
▁began	-8.96626
▁Ra	-8.96685
▁effects	-8.96713
▁problems	-8.96739
▁cat	-8.96856
▁series	-8.9686
▁19	-8.96996
▁feeling	-8.97009
▁safe	-8.97153
ent	-8.97264
▁red	-8.97629
".	-8.97631
am	-8.97636
▁km	-8.9783
▁across	-8.97835
▁Ma	-8.97999
▁check	-8.98047
▁moment	-8.98066
▁Le	-8.98215
▁development	-8.98225
▁pre	-8.98253
▁natural	-8.98315
rs	-8.98558
▁sometimes	-8.98607
▁avoid	-8.98706
▁happen	-8.98735
▁9	-8.98766
▁almost	-8.98951
da	-8.98952
ca	-8.98967
▁contact	-8.99009
▁result	-8.99016
U	-8.9915
▁Ca	-8.99282
▁brother	-8.99359
▁class	-8.99363
▁daughter	-8.9937
ka	-8.99404
▁similar	-8.99548
▁major	-8.99659
▁comes	-8.99711
▁medical	-8.99781
▁break	-8.999
▁needs	-8.99904
▁fight	-8.99905
▁By	-8.99928
▁dry	-9.00066
▁clean	-9.0008
▁boy	-9.00148
▁front	-9.00409
▁disease	-9.00619
▁black	-9.00626
▁amount	-9.00744
▁His	-9.00755
▁Me	-9.00758
▁says	-9.00782
▁prevent	-9.00857
▁anyone	-9.00877
▁symptoms	-9.00881
▁club	-9.00987
▁national	-9.01015
▁Co	-9.01066
▁general	-9.01104
▁asked	-9.01172
▁11	-9.01292
▁near	-9.01342
▁true	-9.01394
age	-9.01399
▁pretty	-9.01593
5	-9.01626
▁With	-9.01683
▁pressure	-9.01735
do	-9.01834
ko	-9.01882
▁ready	-9.01906
▁positive	-9.0203
▁chance	-9.02226
▁gave	-9.02321
▁attention	-9.02379
li	-9.02568
▁behind	-9.02771
é	-9.02883
▁Ka	-9.0306
▁hit	-9.03094
▁wait	-9.03185
▁walk	-9.0325
▁research	-9.03405
▁While	-9.03569
▁German	-9.03583
is	-9.03627
▁weight	-9.03721
ized	-9.03955
▁US	-9.04037
▁March	-9.04222
▁land	-9.04272
▁Con	-9.04328
▁West	-9.04438
▁among	-9.04484
▁everyone	-9.04631
▁died	-9.04749
▁office	-9.04817
▁i	-9.04885
▁third	-9.04896
▁nice	-9.05022
▁myself	-9.05062
▁star	-9.05179
▁Have	-9.0524
▁role	-9.05277
▁lower	-9.05436
▁p	-9.05573
▁police	-9.05583
▁sir	-9.05771
▁cell	-9.05789
▁14	-9.05861
▁Keep	-9.05906
born	-9.05953
W	-9.06045
▁situation	-9.06174
v	-9.06263
4	-9.06347
▁east	-9.06362
▁America	-9.06384
▁allow	-9.06642
▁increase	-9.06682
▁living	-9.07004
▁economic	-9.07085
▁President	-9.07244
▁fine	-9.07249
▁strong	-9.07286
ated	-9.07293
▁happy	-9.07378
pe	-9.07536
▁hot	-9.07803
▁fire	-9.07931
▁worked	-9.07937
▁works	-9.08024
▁13	-9.08104
▁partner	-9.08199
ha	-9.0821
▁weeks	-9.08303
▁specific	-9.08369
go	-9.08381
▁military	-9.08543
▁(19	-9.08592
▁Earth	-9.08687
▁difficult	-9.087
▁Even	-9.08713
▁Here	-9.08729
▁cases	-9.0878
▁main	-9.09146
sh	-9.09153
▁personal	-9.09371
V	-9.09383
▁design	-9.0941
▁words	-9.09472
one	-9.09548
at	-9.10094
▁parents	-9.10118
▁treat	-9.10216
▁ground	-9.1051
▁sound	-9.10515
▁couple	-9.11325
▁Dr	-9.11328
▁areas	-9.11363
▁speak	-9.11367
▁lives	-9.11632
▁easy	-9.1178
▁cold	-9.11804
▁June	-9.11849
ir	-9.11881
▁W	-9.11977
▁surface	-9.1231
less	-9.12543
et	-9.12582
▁hurt	-9.12684
▁add	-9.12734
land	-9.12782
▁e	-9.12808
▁August	-9.1282
▁located	-9.12916
▁size	-9.12932
▁release	-9.1294
▁market	-9.12978
▁member	-9.13026
▁key	-9.13062
The	-9.13283
▁gone	-9.13345
▁art	-9.13429
▁Man	-9.13915
▁Na	-9.14031
▁kids	-9.14258
son	-9.14379
▁answer	-9.14467
▁share	-9.14503
wa	-9.14608
▁save	-9.14756
▁post	-9.14922
ies	-9.15013
▁box	-9.1511
ted	-9.15161
▁simple	-9.15194
▁model	-9.15223
▁Africa	-9.15319
▁ex	-9.15459
▁People	-9.15528
▁capital	-9.15541
▁build	-9.15563
▁district	-9.1578
▁trust	-9.15852
ng	-9.16073
▁Japan	-9.16128
▁access	-9.16328
ster	-9.16331
▁pro	-9.16345
▁g	-9.16376
▁won	-9.16425
ant	-9.16453
▁cells	-9.1657
▁return	-9.16577
▁hell	-9.1663
▁products	-9.16736
▁con	-9.16787
▁step	-9.16813
▁further	-9.16905
▁Bo	-9.16967
▁English	-9.17095
▁J	-9.17579
▁stuff	-9.17699
▁St	-9.17885
▁Once	-9.18148
▁named	-9.18221
▁exactly	-9.18367
▁write	-9.1838
▁program	-9.18457
▁100	-9.18553
▁color	-9.18684
▁drive	-9.18699
▁Ba	-9.1881
▁shot	-9.18846
▁X	-9.18916
▁October	-9.18949
▁September	-9.18986
▁running	-9.19001
▁questions	-9.1903
▁door	-9.19042
▁reduce	-9.19047
▁media	-9.19052
L	-9.19142
▁paper	-9.19203
▁however	-9.19255
pa	-9.19259
▁physical	-9.19261
▁provide	-9.19289
▁ways	-9.19552
▁effect	-9.19631
▁quite	-9.19641
▁international	-9.19661
▁sign	-9.19698
▁cancer	-9.19775
",	-9.19935
▁held	-9.20338
▁Most	-9.20446
ad	-9.2076
▁North	-9.20775
▁plant	-9.20866
▁goes	-9.20992
▁developed	-9.2102
▁drink	-9.21052
▁July	-9.21276
ru	-9.21309
▁service	-9.21336
▁April	-9.21447
▁sort	-9.21525
▁stand	-9.21544
▁di	-9.21784
za	-9.21807
▁wanna	-9.21871
▁January	-9.21902
▁Polish	-9.21952
▁itself	-9.22039
▁buy	-9.22154
ize	-9.22188
▁project	-9.22331
▁+	-9.22332
▁normal	-9.224
line	-9.22547
▁hour	-9.22563
▁Dur	-9.22758
▁anti	-9.22788
▁professional	-9.22898
▁focus	-9.22989
bi	-9.23059
▁value	-9.23147
▁French	-9.23203
▁Mo	-9.23226
▁built	-9.23315
▁higher	-9.23377
▁lose	-9.23481
▁view	-9.23582
ke	-9.23756
▁field	-9.2385
di	-9.2389
▁Tell	-9.23983
ti	-9.24125
▁negative	-9.24253
ization	-9.24385
▁remove	-9.24391
▁husband	-9.24489
▁fun	-9.24507
▁cost	-9.24597
▁York	-9.24723
▁protect	-9.24763
▁watch	-9.24784
▁needed	-9.24938
ful	-9.24954
▁completely	-9.24979
▁Ta	-9.2503
▁online	-9.2527
▁entire	-9.25341
▁action	-9.25444
▁bar	-9.25462
▁feelings	-9.25518
▁brought	-9.2552
▁simply	-9.25657
▁Ro	-9.25696
▁levels	-9.25709
▁healthy	-9.26011
▁south	-9.26079
▁sit	-9.26084
▁John	-9.26151
▁product	-9.26165
um	-9.26203
▁consider	-9.26347
vi	-9.26363
▁Li	-9.26553
va	-9.26702
▁created	-9.26727
ner	-9.26776
▁Sa	-9.26966
▁security	-9.26978
▁growth	-9.27009
▁Pro	-9.2701
▁November	-9.27031
▁considered	-9.27211
▁technology	-9.27296
▁send	-9.27396
▁According	-9.27416
▁quickly	-9.27438
▁sent	-9.27499
▁members	-9.27626
▁community	-9.27695
▁follow	-9.27702
▁production	-9.27709
▁bed	-9.27726
▁effective	-9.27795
▁al	-9.279
▁married	-9.28035
▁El	-9.28077
▁dis	-9.28085
▁above	-9.28097
▁fish	-9.28406
▁ice	-9.28482
j	-9.28515
▁pick	-9.28521
▁December	-9.28674
▁activity	-9.28751
▁file	-9.28752
▁screen	-9.28817
▁changes	-9.28831
▁acid	-9.28987
▁region	-9.29038
▁received	-9.29138
▁Pa	-9.29184
ah	-9.29213
▁writing	-9.2925
▁fear	-9.29317
▁themselves	-9.29409
▁heat	-9.29478
▁various	-9.2949
▁sea	-9.29928
▁Ho	-9.29931
▁gotta	-9.2998
▁date	-9.30075
▁current	-9.30081
▁Many	-9.30082
▁force	-9.30111
▁figure	-9.30282
▁met	-9.30477
op	-9.30487
▁Miss	-9.30556
▁0	-9.30731
▁environment	-9.30938
▁begin	-9.31012
▁act	-9.31073
▁stress	-9.311
▁month	-9.31106
▁approximately	-9.31169
▁wish	-9.31318
▁popular	-9.31338
ating	-9.31368
▁Ha	-9.31379
▁m	-9.31657
▁moving	-9.31671
▁rate	-9.31694
▁related	-9.31839
▁seem	-9.31845
▁feet	-9.3186
▁choose	-9.31922
▁spend	-9.31963
▁mouth	-9.32014
▁voice	-9.32067
▁total	-9.32081
▁c	-9.32119
▁fall	-9.32216
▁playing	-9.32287
▁African	-9.32382
▁final	-9.32416
▁First	-9.32501
▁deep	-9.32758
▁trade	-9.32848
▁serious	-9.32955
▁Since	-9.3306
▁Hu	-9.33122
▁trouble	-9.3318
▁interest	-9.3318
▁County	-9.33268
ut	-9.33384
▁former	-9.334
▁en	-9.33437
▁24	-9.33466
▁50	-9.33547
▁kid	-9.33559
▁president	-9.33591
▁exercise	-9.33674
▁rights	-9.33684
lin	-9.33688
▁cool	-9.33884
▁album	-9.33943
▁la	-9.34017
▁published	-9.34032
▁beautiful	-9.34114
▁ten	-9.34177
▁patients	-9.34448
▁2004	-9.34533
▁practice	-9.34545
▁Mar	-9.34586
▁hospital	-9.34626
os	-9.34638
▁Su	-9.3468
▁education	-9.34748
▁25	-9.34782
▁guess	-9.34807
▁tried	-9.34819
▁song	-9.35001
▁giving	-9.35036
▁conversation	-9.35091
▁From	-9.35214
▁=	-9.35266
▁addition	-9.35267
▁account	-9.35343
▁science	-9.35466
▁attack	-9.35505
▁behavior	-9.35551
▁individual	-9.35616
▁City	-9.3568
▁listen	-9.35693
▁minute	-9.35818
▁wants	-9.35915
▁click	-9.36173
▁store	-9.36186
▁career	-9.36193
▁Good	-9.36202
▁results	-9.36277
▁administrative	-9.3643
▁issues	-9.36475
▁f	-9.36531
▁code	-9.36606
▁TV	-9.36711
im	-9.36726
▁Like	-9.36763
▁moved	-9.36845
▁looks	-9.36913
▁Europe	-9.36914
ally	-9.37032
▁led	-9.37113
wi	-9.3718
he	-9.37283
▁games	-9.37367
▁Give	-9.37393
▁piece	-9.37677
▁See	-9.37807
▁grow	-9.3798
▁infection	-9.38086
▁range	-9.38087
▁supposed	-9.38195
▁method	-9.38365
▁bottom	-9.38515
▁middle	-9.38694
▁February	-9.38728
▁warm	-9.38776
▁evidence	-9.38782
?"	-9.38846
ance	-9.38866
▁necessary	-9.38872
der	-9.39003
▁species	-9.39022
▁address	-9.39023
▁source	-9.39041
▁Di	-9.39196
▁window	-9.39323
▁choice	-9.39377
▁text	-9.39399
▁billion	-9.39455
ley	-9.3949
ex	-9.39571
▁loss	-9.39587
▁offer	-9.39958
▁caused	-9.40069
▁continue	-9.40185
▁afraid	-9.40222
ish	-9.40432
▁dark	-9.4058
▁planet	-9.40688
▁potential	-9.40717
▁particular	-9.4072
▁truth	-9.4079
6	-9.40862
▁ma	-9.40981
▁San	-9.40996
▁Of	-9.4101
vo	-9.41055
▁International	-9.41201
▁fast	-9.41206
up	-9.41239
▁Japanese	-9.41378
▁temperature	-9.41411
▁goal	-9.41491
ial	-9.4156
▁gun	-9.41778
▁mass	-9.41808
▁sex	-9.41967
▁students	-9.42114
▁touch	-9.42289
▁involved	-9.42347
▁regional	-9.42637
nd	-9.42836
▁2011	-9.42849
les	-9.43037
▁sub	-9.43042
▁parts	-9.43117
▁Ga	-9.43327
▁record	-9.43354
▁upon	-9.43427
▁Z	-9.4354
and	-9.43618
▁win	-9.43749
▁himself	-9.43795
▁sister	-9.43829
▁Pi	-9.43957
▁India	-9.43974
▁whatever	-9.44011
▁lies	-9.4404
▁blue	-9.44079
▁Vi	-9.44125
oc	-9.44152
▁fat	-9.44239
▁develop	-9.44252
▁extra	-9.44335
lu	-9.44363
▁served	-9.44515
▁cover	-9.44598
▁telling	-9.44604
▁diet	-9.44657
▁School	-9.44693
▁2012	-9.44703
▁news	-9.44727
▁picture	-9.44758
▁systems	-9.44812
▁condition	-9.4486
▁version	-9.44989
▁page	-9.4507
▁green	-9.45219
ang	-9.4538
ow	-9.45408
▁worry	-9.45427
yl	-9.45503
▁meeting	-9.45546
▁Mi	-9.45622
bo	-9.45683
ium	-9.45751
ak	-9.45836
▁played	-9.45959
▁training	-9.4601
▁modern	-9.46012
▁asking	-9.46254
▁female	-9.46294
▁foods	-9.4644
▁21	-9.46571
▁changed	-9.46622
▁sold	-9.46675
▁tonight	-9.46883
▁ability	-9.46905
▁Central	-9.46971
▁damage	-9.46983
▁Voivodeship	-9.47019
▁wear	-9.47079
▁drop	-9.47208
▁Please	-9.47258
▁types	-9.47264
▁happens	-9.47382
▁activities	-9.47456
ler	-9.47807
ron	-9.47862
▁track	-9.48088
▁decided	-9.48183
▁sun	-9.48217
om	-9.48262
▁app	-9.48325
▁written	-9.48329
▁sugar	-9.48387
ig	-9.48413
▁western	-9.48415
▁site	-9.48501
ver	-9.48543
ence	-9.48561
▁reach	-9.48561
▁style	-9.48608
▁appear	-9.48757
▁State	-9.48825
▁mine	-9.48839
▁produced	-9.48862
▁2015	-9.48918
▁Ar	-9.48984
▁original	-9.49012
▁culture	-9.49044
bu	-9.49064
▁solution	-9.4915
▁daily	-9.49176
▁King	-9.49217
▁conditions	-9.49347
▁material	-9.4939
▁seven	-9.49395
tion	-9.49507
▁poor	-9.49529
▁center	-9.49646
8	-9.49783
▁gas	-9.49812
ber	-9.49877
▁worth	-9.49897
▁road	-9.49901
way	-9.49931
▁Ko	-9.50058
▁companies	-9.50147
com	-9.50153
▁European	-9.50185
▁generally	-9.50193
▁global	-9.50268
▁directly	-9.50376
▁seems	-9.50394
▁°	-9.504
▁France	-9.50431
▁immediately	-9.5049
▁image	-9.50514
▁beginning	-9.5053
men	-9.5076
▁Other	-9.50937
▁groups	-9.51046
▁studies	-9.51203
ho	-9.51225
▁tea	-9.51292
▁Thank	-9.51296
we	-9.51301
ong	-9.5132
▁eight	-9.51358
▁Gmina	-9.51384
▁active	-9.51415
▁associated	-9.51416
▁search	-9.515
▁round	-9.51516
▁throughout	-9.51756
▁Lo	-9.51796
▁society	-9.51888
▁alive	-9.51967
▁2010	-9.52058
con	-9.52155
▁tend	-9.52224
▁Our	-9.52239
▁British	-9.52477
▁message	-9.5263
▁press	-9.52654
od	-9.52787
▁report	-9.52925
ship	-9.52929
▁decision	-9.52967
▁degree	-9.53016
▁drugs	-9.5306
qui	-9.53171
▁event	-9.53175
▁stage	-9.53356
▁40	-9.53479
▁option	-9.53498
▁eating	-9.53715
▁produce	-9.53937
▁television	-9.54233
▁events	-9.5447
▁II	-9.54596
min	-9.54673
▁Although	-9.54862
▁terms	-9.55053
ide	-9.55094
ja	-9.55139
▁shown	-9.5517
▁leaving	-9.55176
▁movement	-9.55238
▁west	-9.55262
▁improve	-9.55393
▁according	-9.55509
ot	-9.5553
▁nature	-9.5553
▁Da	-9.55534
ina	-9.55665
▁felt	-9.55703
▁salt	-9.55707
▁table	-9.55713
▁Minister	-9.55731
▁General	-9.55849
7	-9.55854
ping	-9.55889
▁girls	-9.55898
▁animals	-9.55935
▁turned	-9.56
▁East	-9.56052
▁reported	-9.56086
▁visit	-9.56168
▁central	-9.56208
▁takes	-9.56222
▁response	-9.56235
▁director	-9.56254
▁impact	-9.56373
▁secret	-9.56613
▁2013	-9.56622
▁waiting	-9.56663
▁Sha	-9.56695
▁Se	-9.57076
▁network	-9.57137
▁Asia	-9.57217
▁tomorrow	-9.57384
▁base	-9.57437
▁tree	-9.57539
▁issue	-9.57562
▁floor	-9.57606
▁medication	-9.57619
▁content	-9.57637
▁discovered	-9.57713
▁machine	-9.57826
▁private	-9.57857
▁Lu	-9.57926
tor	-9.58074
gu	-9.58101
ya	-9.5814
▁complex	-9.58144
▁slow	-9.58249
▁Avoid	-9.58384
▁forward	-9.58437
▁announced	-9.58438
▁structure	-9.58567
▁lack	-9.58622
▁character	-9.58694
▁increased	-9.58704
ze	-9.58715
▁difference	-9.58716
▁services	-9.58723
▁function	-9.58897
▁designed	-9.58898
▁shape	-9.58912
▁band	-9.58929
▁thank	-9.59039
▁Pe	-9.5904
▁easier	-9.59066
▁patient	-9.59383
▁Russian	-9.59429
tra	-9.59501
ite	-9.59549
▁2016	-9.59567
▁border	-9.59669
▁notice	-9.59672
▁court	-9.59695
0	-9.59738
mb	-9.59747
▁Sea	-9.59793
▁particularly	-9.59835
▁Click	-9.5984
▁interested	-9.5986
▁growing	-9.59922
▁typically	-9.59939
▁significant	-9.60018
▁enjoy	-9.60064
▁anymore	-9.60128
▁foreign	-9.60163
▁fresh	-9.60304
▁towards	-9.60376
▁respect	-9.60383
▁shall	-9.60438
▁wrote	-9.60498
J	-9.60521
▁explain	-9.60567
▁speed	-9.60637
▁states	-9.60676
▁location	-9.60701
▁forget	-9.60785
fi	-9.60886
ped	-9.60923
▁books	-9.61006
▁shows	-9.61023
▁dad	-9.6125
▁Find	-9.61298
▁somebody	-9.61343
chi	-9.61508
▁button	-9.61637
▁complete	-9.6166
▁Party	-9.61662
▁numbers	-9.61911
▁Ask	-9.6208
▁starting	-9.62103
▁performance	-9.62126
▁dream	-9.62399
▁largest	-9.62401
ard	-9.62576
▁price	-9.62631
den	-9.6265
tro	-9.62656
▁Instead	-9.6279
▁success	-9.62814
▁Two	-9.62822
▁scale	-9.62866
▁Put	-9.62913
▁spent	-9.62922
ac	-9.63152
▁Will	-9.63163
▁brand	-9.63166
▁rich	-9.6322
▁comfortable	-9.63266
▁uh	-9.63267
▁expect	-9.63278
▁gets	-9.63292
▁worse	-9.6331
▁object	-9.63384
▁although	-9.63428
▁looked	-9.63433
▁alcohol	-9.63561
tal	-9.63573
▁b	-9.63688
▁regular	-9.63736
▁included	-9.63834
▁board	-9.63861
tu	-9.63874
▁official	-9.63935
▁kilometres	-9.64057
▁quality	-9.64057
▁House	-9.64439
▁apply	-9.6449
▁direct	-9.64548
led	-9.64618
▁policy	-9.64634
▁described	-9.64689
▁Ja	-9.64778
▁thoughts	-9.65042
ities	-9.65042
▁2009	-9.6512
▁clothes	-9.65185
▁Korea	-9.65199
▁goals	-9.65202
▁pop	-9.65221
▁Sun	-9.653
▁finally	-9.6544
▁variety	-9.65506
▁Mu	-9.6553
▁travel	-9.65554
▁match	-9.65559
▁learning	-9.65563
▁k	-9.65634
▁mom	-9.65653
▁larger	-9.65662
▁spread	-9.65718
▁easily	-9.65769
ft	-9.65878
▁stories	-9.66004
▁average	-9.66091
▁plants	-9.66289
▁subject	-9.66303
▁London	-9.66326
▁pull	-9.66378
izing	-9.66403
▁title	-9.66426
ical	-9.665
▁Hi	-9.66567
▁d	-9.66827
tin	-9.66911
▁below	-9.67042
▁interesting	-9.67149
que	-9.67259
ology	-9.67358
ov	-9.67397
9	-9.67752
▁count	-9.67911
▁onto	-9.67998
by	-9.68025
▁established	-9.68104
▁legal	-9.68204
▁card	-9.68288
▁protein	-9.68296
▁coffee	-9.68497
▁seconds	-9.68576
▁imagine	-9.68602
▁ideas	-9.68682
▁Vietnamese	-9.68897
▁multiple	-9.69012
our	-9.69016
▁rule	-9.69022
▁corner	-9.69038
▁District	-9.69039
▁bag	-9.69124
po	-9.69143
▁loved	-9.69207
▁Bi	-9.69223
si	-9.69225
out	-9.69284
shi	-9.69288
che	-9.69343
▁currently	-9.69368
▁approach	-9.69429
▁2008	-9.69458
dy	-9.69475
▁places	-9.69505
▁powerful	-9.69594
ative	-9.69678
▁distance	-9.69737
mp	-9.69754
mon	-9.69861
▁straight	-9.69915
▁2014	-9.69934
▁yes	-9.69974
▁river	-9.69981
▁Car	-9.70002
▁soil	-9.70016
▁cup	-9.7022
▁theory	-9.70298
▁Women	-9.70319
▁birth	-9.70345
▁Would	-9.70378
▁lived	-9.70486
▁Mac	-9.70531
▁wall	-9.7057
▁command	-9.70652
▁meaning	-9.70671
▁Does	-9.70675
ung	-9.7074
▁Think	-9.70748
▁letter	-9.70804
▁foot	-9.70845
▁device	-9.70863
▁train	-9.70899
▁path	-9.71037
▁Germany	-9.71152
▁Ben	-9.71268
▁sexual	-9.71274
▁basic	-9.71293
▁prison	-9.71386
ip	-9.71498
▁animal	-9.71774
▁causes	-9.7188
▁Soviet	-9.71953
ward	-9.71957
▁st	-9.71975
▁Remember	-9.72016
▁sales	-9.72042
▁seeing	-9.72055
▁Fa	-9.72058
▁whose	-9.72342
▁strength	-9.7235
▁cream	-9.72488
▁stick	-9.72558
io	-9.72652
▁leading	-9.7267
▁fit	-9.72719
▁crazy	-9.72954
ning	-9.73068
▁Union	-9.73111
▁Consider	-9.733
▁economy	-9.73331
▁management	-9.73344
▁perfect	-9.73406
▁street	-9.73408
▁learned	-9.73461
▁allowed	-9.73497
▁ring	-9.73571
▁22	-9.73631
Applause	-9.73647
▁freedom	-9.73716
▁software	-9.73744
▁chemical	-9.7375
▁standard	-9.73832
▁2000	-9.73963
▁king	-9.74028
▁recent	-9.74058
▁Russia	-9.74076
▁organization	-9.74158
▁&	-9.74205
▁muscle	-9.74235
▁High	-9.74274
▁added	-9.74296
▁breath	-9.7439
tri	-9.7452
▁cross	-9.74522
▁Y	-9.74548
▁bottle	-9.7457
▁ship	-9.74578
▁opportunity	-9.74601
▁followed	-9.7465
ier	-9.74682
▁Serie	-9.74797
▁severe	-9.74803
▁Open	-9.74818
▁Am	-9.7482
▁require	-9.74889
▁2017	-9.74902
▁instance	-9.74922
▁Windows	-9.74998
▁huh	-9.75082
▁memory	-9.75179
▁calm	-9.75311
▁hate	-9.75419
▁enter	-9.75458
▁smell	-9.75473
▁rise	-9.75722
▁everybody	-9.75795
▁rules	-9.75848
▁email	-9.75859
▁catch	-9.75862
▁sell	-9.76042
lan	-9.76069
▁sick	-9.76079
▁pass	-9.76098
▁Uh	-9.76225
▁unit	-9.76247
fa	-9.76297
▁spot	-9.76434
▁financial	-9.76537
▁influence	-9.76542
▁football	-9.76575
▁knowledge	-9.76603
▁bacteria	-9.76758
▁traditional	-9.76855
▁dance	-9.76863
▁finished	-9.76881
▁ahead	-9.76927
▁contain	-9.77043
▁l	-9.77052
▁Internet	-9.77062
ek	-9.77144
▁dinner	-9.77224
▁2007	-9.7727
▁arm	-9.77273
▁meat	-9.77424
▁sweet	-9.77535
hi	-9.77539
▁points	-9.77607
▁forces	-9.77684
▁Gu	-9.77722
▁signs	-9.77781
▁2006	-9.77788
▁determine	-9.77924
▁Cha	-9.7794
▁forms	-9.78142
▁Bar	-9.78143
▁eventually	-9.78156
▁decide	-9.78157
ai	-9.78212
▁wide	-9.78388
▁Red	-9.78421
▁smaller	-9.78463
▁o	-9.78501
▁rock	-9.78745
▁handle	-9.78799
▁ensure	-9.78847
▁options	-9.78899
▁Syria	-9.789
▁features	-9.78907
▁gold	-9.78968
▁y	-9.79008
▁OK	-9.79097
▁photo	-9.79102
▁greater	-9.79227
▁industry	-9.79245
▁novel	-9.79272
mer	-9.79445
▁double	-9.79514
▁menu	-9.7954
▁23	-9.79624
▁station	-9.79738
▁ai	-9.79758
▁dangerous	-9.79791
X	-9.79842
ny	-9.79863
ku	-9.79879
▁map	-9.79926
▁block	-9.80037
▁glass	-9.80048
▁older	-9.80188
red	-9.80259
ab	-9.80271
▁Right	-9.80396
▁Po	-9.8046
my	-9.80585
▁stars	-9.80691
▁becoming	-9.80724
▁Sometimes	-9.80729
▁Every	-9.80756
▁therapy	-9.80774
▁player	-9.80814
▁super	-9.80866
▁Start	-9.80875
▁Tu	-9.80891
▁reading	-9.80946
▁purpose	-9.80976
▁movie	-9.80981
▁promise	-9.81086
▁bank	-9.8111
▁radio	-9.81167
▁Pomeranian	-9.81175
▁shut	-9.81246
▁combination	-9.81411
▁favorite	-9.81419
▁Te	-9.81423
▁Only	-9.81491
▁sitting	-9.81541
ric	-9.81584
▁burn	-9.81592
▁Listen	-9.81603
ions	-9.81621
▁kept	-9.8165
▁En	-9.81701
▁square	-9.81719
▁length	-9.81753
▁ball	-9.818
gi	-9.81818
▁peace	-9.81945
▁happening	-9.81992
su	-9.82041
▁website	-9.82045
▁Add	-9.82101
▁mission	-9.8225
▁realize	-9.82262
▁campaign	-9.82304
▁Another	-9.82341
▁se	-9.8237
▁standing	-9.82401
▁plastic	-9.82527
▁fix	-9.82539
ble	-9.82655
▁Before	-9.82688
▁successful	-9.82749
gen	-9.82825
▁aware	-9.82832
▁section	-9.82869
ub	-9.829
▁occur	-9.82943
▁perhaps	-9.83101
Y	-9.83158
▁returned	-9.83341
▁reaction	-9.83374
▁Chi	-9.83383
▁Ne	-9.83399
▁hang	-9.83462
ten	-9.83762
▁milk	-9.83871
▁x	-9.83884
ee	-9.84015
▁Ri	-9.84113
▁resources	-9.84145
▁Ti	-9.84191
▁earlier	-9.84221
ō	-9.84288
▁commonly	-9.84307
▁meant	-9.84375
/	-9.84443
▁twice	-9.84467
▁miss	-9.84488
▁pet	-9.84506
▁Bu	-9.8452
▁developing	-9.84549
▁finish	-9.84595
▁founded	-9.84599
▁names	-9.8464
▁conflict	-9.84643
▁lie	-9.84676
▁teacher	-9.84706
▁2018	-9.84743
▁fruit	-9.84762
▁somewhere	-9.85093
▁host	-9.85149
ph	-9.85182
▁humans	-9.85255
▁shoot	-9.85281
▁wearing	-9.85285
▁heavy	-9.85424
▁college	-9.85459
▁showed	-9.85506
ile	-9.85716
▁target	-9.85747
▁select	-9.85797
▁seat	-9.85818
▁recently	-9.85987
▁dollars	-9.86024
▁holding	-9.86054
▁summer	-9.8607
fe	-9.86275
▁medicine	-9.86282
▁additional	-9.86295
▁leaves	-9.86355
ification	-9.86368
sk	-9.86376
▁beyond	-9.8639
▁1990	-9.86396
ase	-9.86429
▁allows	-9.86438
▁v	-9.86529
50	-9.86545
▁studied	-9.8657
▁Western	-9.86609
▁remain	-9.86628
▁responsible	-9.86642
ger	-9.86652
▁Those	-9.86825
ries	-9.86872
▁soft	-9.86939
pi	-9.86968
")	-9.86978
▁miles	-9.8701
ep	-9.87037
▁battle	-9.8711
▁watching	-9.87154
▁mid	-9.8721
▁race	-9.87234
ach	-9.87358
▁join	-9.87418
▁finding	-9.87445
▁lines	-9.87467
▁ho	-9.87566
▁plane	-9.87592
▁calling	-9.87594
▁flow	-9.87672
▁arms	-9.87735
ana	-9.87873
▁Wait	-9.87986
▁keeping	-9.88013
▁required	-9.88058
▁stock	-9.88151
▁ran	-9.88186
▁huge	-9.88247
▁charge	-9.88269
▁Tri	-9.88326
▁nearly	-9.88674
▁skills	-9.88685
▁paid	-9.88691
German	-9.88721
▁accept	-9.88802
ging	-9.88836
▁via	-9.88854
▁depression	-9.88865
▁separate	-9.88894
▁includes	-9.88932
▁contains	-9.88941
▁trip	-9.88991
▁ta	-9.89145
▁mis	-9.89155
ec	-9.89175
▁thus	-9.8925
▁Sir	-9.89331
ified	-9.89371
▁toward	-9.89449
▁items	-9.8949
▁Over	-9.89528
▁Indian	-9.89564
▁Court	-9.89642
▁neck	-9.8994
▁speech	-9.89977
▁walking	-9.8998
▁mental	-9.90047
▁2003	-9.90087
▁primary	-9.90129
▁climate	-9.902
so	-9.90248
▁60	-9.9027
▁northern	-9.90275
▁Ab	-9.90291
▁anxiety	-9.90403
▁mu	-9.90411
rin	-9.90438
▁wind	-9.90509
▁wash	-9.90543
▁Wi	-9.90619
pro	-9.90684
▁failure	-9.9069
▁nose	-9.90837
▁draw	-9.9091
▁flight	-9.90997
▁demand	-9.90998
for	-9.91144
▁contract	-9.91223
jo	-9.91226
20	-9.91291
▁Check	-9.91311
▁Also	-9.91351
▁master	-9.9138
▁highly	-9.91475
▁boys	-9.91571
▁virus	-9.91628
▁w	-9.91648
▁killing	-9.91677
▁waste	-9.91763
▁Italian	-9.91783
▁push	-9.91825
▁causing	-9.91836
▁breathing	-9.91927
ring	-9.9193
▁Fi	-9.91961
▁Any	-9.92077
▁gain	-9.92132
▁iron	-9.92153
▁actions	-9.92165
▁interview	-9.9243
ita	-9.92471
▁Army	-9.92622
▁seek	-9.92648
▁mo	-9.92672
▁Which	-9.92735
▁emotions	-9.92738
▁reasons	-9.92833
▁Roman	-9.92834
▁putting	-9.92887
▁fully	-9.92891
▁student	-9.92899
▁gives	-9.92949
▁leaders	-9.9295
▁legs	-9.92956
▁nine	-9.92958
▁trial	-9.93055
▁metal	-9.93131
▁appearance	-9.9317
▁receive	-9.93229
▁quick	-9.93241
▁gift	-9.93428
▁sounds	-9.93436
▁camp	-9.93485
▁$	-9.9352
▁Congress	-9.93542
▁acting	-9.93553
▁progress	-9.93567
▁agent	-9.93692
▁competition	-9.93736
▁boss	-9.93885
▁Paris	-9.93891
▁Park	-9.93984
▁Award	-9.9402
▁yeah	-9.94046
▁teeth	-9.94047
▁individuals	-9.94086
▁leg	-9.94157
▁camera	-9.94438
▁murder	-9.94502
▁respond	-9.94592
▁leader	-9.947
▁Black	-9.94706
du	-9.94766
▁passed	-9.94791
▁amazing	-9.94864
ap	-9.94928
▁reality	-9.94983
▁Pre	-9.95079
ji	-9.95144
▁speaking	-9.95355
ists	-9.95408
▁Ni	-9.9542
ye	-9.9544
▁famous	-9.95492
▁Lord	-9.95516
▁changing	-9.95532
▁believed	-9.95592
▁workers	-9.95627
▁male	-9.95644
▁ocean	-9.9565
▁cycle	-9.95733
▁pair	-9.9578
rd	-9.95798
▁Talk	-9.958
▁flu	-9.9581
▁effort	-9.95827
ran	-9.95861
▁shift	-9.95863
▁shoes	-9.95944
▁fighting	-9.96036
▁surgery	-9.96047
▁serve	-9.96053
▁formed	-9.96126
▁continued	-9.96135
▁display	-9.96334
ud	-9.96379
▁anybody	-9.96491
▁appeared	-9.96495
▁tap	-9.96544
▁supply	-9.96601
▁icon	-9.96642
▁Kingdom	-9.96643
▁26	-9.96679
▁joined	-9.96695
▁broken	-9.96776
ey	-9.96859
▁languages	-9.96871
▁boat	-9.96903
▁generation	-9.96945
▁(1	-9.96998
▁Google	-9.97
▁beat	-9.97031
▁caught	-9.97042
▁Human	-9.97084
▁unless	-9.97106
▁maintain	-9.97182
▁Nintendo	-9.972
▁Za	-9.97234
▁inter	-9.97251
▁stomach	-9.9728
▁27	-9.97363
▁More	-9.97369
▁medications	-9.97371
▁Dad	-9.97399
ea	-9.97455
▁plans	-9.97457
▁park	-9.97496
▁Latin	-9.97573
▁throw	-9.97706
▁28	-9.97863
▁pot	-9.97865
▁opening	-9.97893
kin	-9.97924
▁placed	-9.98001
▁Republic	-9.9805
▁limited	-9.98067
han	-9.98118
▁po	-9.98186
▁garden	-9.98247
ł	-9.98275
▁army	-9.98305
▁carry	-9.98444
▁etc	-9.98462
king	-9.98478
▁highest	-9.98508
▁Wa	-9.98535
▁Great	-9.98538
▁reached	-9.98627
▁Best	-9.98695
act	-9.98705
▁cities	-9.98747
dic	-9.98747
▁Je	-9.98756
▁appropriate	-9.98774
▁trick	-9.99136
▁wake	-9.99155
ple	-9.99166
▁thousands	-9.99191
use	-9.99208
▁George	-9.99215
▁useful	-9.99239
ise	-9.99271
▁funny	-9.99318
▁objects	-9.99325
▁challenge	-9.99335
▁chain	-9.99367
▁liquid	-9.99469
▁alternative	-9.9951
▁affected	-9.9951
▁Queen	-9.99557
▁yellow	-9.99593
▁1980	-9.996
▁favor	-9.99639
▁equal	-9.99654
▁slightly	-9.99666
▁Korean	-9.99693
▁setting	-9.99722
▁Place	-9.99815
▁property	-9.99853
▁creating	-9.99882
▁ourselves	-9.99961
▁essential	-9.99997
▁Frank	-10.0005
▁safety	-10.0005
▁understanding	-10.0007
▁2005	-10.0007
▁taste	-10.0016
▁missing	-10.0026
▁appears	-10.0028
▁spray	-10.0029
▁unique	-10.003
▁helps	-10.0035
if	-10.0045
▁religious	-10.0046
▁honor	-10.0051
▁programs	-10.0053
▁fly	-10.0053
▁helped	-10.0055
▁bath	-10.0056
▁feed	-10.0072
ned	-10.0072
▁marriage	-10.0075
▁materials	-10.0075
▁raise	-10.0079
▁Follow	-10.0083
▁drinking	-10.0095
▁Ge	-10.0099
▁abuse	-10.0103
▁opened	-10.0103
▁connect	-10.0113
▁Sam	-10.0113
▁Mary	-10.0116
▁tank	-10.0119
▁Paul	-10.0128
▁authorities	-10.0129
▁interests	-10.0131
▁(2	-10.0135
▁Du	-10.0135
▁becomes	-10.0136
▁Ex	-10.0138
▁web	-10.0149
▁honey	-10.015
▁bomb	-10.015
cha	-10.0153
▁commercial	-10.0154
▁singer	-10.0157
▁towel	-10.0161
cy	-10.0165
▁emotional	-10.017
▁article	-10.0184
▁sp	-10.0194
▁sources	-10.0197
▁helping	-10.0197
▁ride	-10.0209
▁slowly	-10.0227
▁carbon	-10.024
▁previous	-10.0251
ven	-10.0254
▁agree	-10.0265
▁direction	-10.0282
let	-10.0283
▁anywhere	-10.0299
▁prepared	-10.0305
▁families	-10.031
mar	-10.0324
▁soap	-10.0327
▁liver	-10.0335
duct	-10.0346
▁Har	-10.0348
▁treated	-10.0351
▁presence	-10.0352
ious	-10.0355
You	-10.0361
▁audience	-10.0361
ene	-10.0368
▁juice	-10.037
▁England	-10.0378
▁lady	-10.0381
▁island	-10.0383
▁layer	-10.0385
▁approved	-10.0395
▁taught	-10.04
ev	-10.04
▁bodies	-10.0408
▁hole	-10.0409
▁knows	-10.041
▁2001	-10.0417
rk	-10.0421
▁honest	-10.0426
▁factors	-10.0433
▁connected	-10.0436
▁nuclear	-10.0442
▁anyway	-10.0442
▁nation	-10.0442
▁teach	-10.045
▁Australia	-10.0459
▁Un	-10.0459
▁200	-10.0465
▁bio	-10.0472
▁muscles	-10.0475
▁mood	-10.048
▁1,	-10.0481
▁upper	-10.049
▁Health	-10.049
▁Jo	-10.0495
▁judge	-10.0496
▁artist	-10.05
▁collection	-10.0502
▁cr	-10.0505
▁tissue	-10.0511
▁Watch	-10.0512
▁chest	-10.0513
▁recognize	-10.0521
▁expected	-10.0525
▁Men	-10.0528
▁values	-10.0528
▁recommended	-10.0533
▁critical	-10.0546
▁task	-10.0547
▁investment	-10.0552
▁closed	-10.056
zo	-10.0562
á	-10.0562
▁lo	-10.0566
▁hide	-10.057
▁Institute	-10.0572
▁James	-10.0574
▁raised	-10.0578
cu	-10.0579
▁Jack	-10.0599
ane	-10.0602
▁faster	-10.0602
▁actress	-10.0603
10	-10.0607
▁steps	-10.0608
▁performed	-10.0611
▁stupid	-10.0612
▁label	-10.0614
▁cast	-10.0618
▁2002	-10.0622
ade	-10.0625
▁fill	-10.0626
▁rid	-10.0628
▁Ad	-10.0629
▁imp	-10.0632
▁Air	-10.0633
▁clinical	-10.0636
light	-10.0639
▁kiss	-10.0647
ction	-10.0647
▁mostly	-10.0652
▁Group	-10.0656
▁tax	-10.0657
▁Che	-10.066
time	-10.0661
▁vegetables	-10.0666
▁ended	-10.0667
form	-10.0668
▁earth	-10.0673
▁costs	-10.0677
]	-10.0695
▁remains	-10.0701
▁appointed	-10.0702
▁elements	-10.0705
▁ear	-10.071
▁cultural	-10.0716
ino	-10.0722
lic	-10.0727
▁exist	-10.0736
▁motion	-10.0736
▁vision	-10.074
▁David	-10.0749
au	-10.075
000	-10.0757
ps	-10.0758
▁suggest	-10.0767
bb	-10.0777
▁volume	-10.0784
▁connection	-10.0794
ure	-10.0795
▁zone	-10.0796
▁Council	-10.0797
▁White	-10.0803
▁Gi	-10.0806
▁digital	-10.0806
▁measure	-10.0808
▁relationships	-10.0809
▁scientific	-10.0811
▁bill	-10.0817
▁note	-10.0827
▁civil	-10.0828
▁ancient	-10.0829
ez	-10.083
▁River	-10.0844
▁Year	-10.0862
▁harm	-10.0862
▁Ku	-10.0864
▁accident	-10.0868
▁manage	-10.087
▁advantage	-10.0874
▁Could	-10.0874
▁careful	-10.0876
▁showing	-10.0877
ew	-10.0877
▁provided	-10.0878
▁Washington	-10.0883
▁Ju	-10.0884
▁pieces	-10.0887
▁blow	-10.0904
▁wonder	-10.0906
zy	-10.091
▁writer	-10.0916
▁methods	-10.0922
▁saved	-10.0926
▁bear	-10.0928
▁attempt	-10.0935
▁Canada	-10.0942
▁smart	-10.0953
▁introduced	-10.0956
▁trees	-10.0974
ker	-10.098
▁stopped	-10.0986
▁California	-10.0987
sta	-10.0987
▁core	-10.0991
car	-10.0992
▁claim	-10.1007
▁grew	-10.1009
▁Sch	-10.1017
board	-10.1022
▁benefit	-10.1023
▁universe	-10.1023
▁damn	-10.1026
▁Department	-10.1032
▁Hong	-10.1033
▁Per	-10.1038
▁construction	-10.104
oid	-10.1043
▁balance	-10.1043
▁Act	-10.1046
▁bigger	-10.1049
cing	-10.1052
▁author	-10.1059
▁tape	-10.1069
▁signal	-10.1074
ski	-10.1095
▁mistake	-10.1097
▁Beijing	-10.1101
▁concept	-10.1103
▁agreement	-10.1105
▁criminal	-10.1109
ral	-10.1111
▁protection	-10.1114
▁affect	-10.1115
▁r	-10.1128
q	-10.1129
▁clothing	-10.1136
▁fault	-10.1143
▁units	-10.1147
▁independent	-10.1152
▁mask	-10.1154
▁losing	-10.1157
▁horse	-10.1165
▁referred	-10.1171
▁compared	-10.119
fo	-10.1191
▁therefore	-10.1191
cur	-10.1192
▁Second	-10.1192
▁aid	-10.1195
▁bo	-10.1204
▁crime	-10.1223
▁oxygen	-10.1226
▁whom	-10.1229
▁basis	-10.1231
▁properties	-10.1235
▁doubt	-10.1236
▁Apple	-10.1247
van	-10.1248
▁Mon	-10.1254
▁images	-10.1258
▁prefer	-10.1258
▁download	-10.1267
▁counter	-10.1268
▁willing	-10.1273
▁Center	-10.1277
▁status	-10.1282
▁stain	-10.1287
▁Association	-10.1291
▁smile	-10.1291
▁mixture	-10.1292
▁violence	-10.1296
▁failed	-10.13
▁prove	-10.1301
▁bird	-10.1302
gar	-10.1303
▁administration	-10.131
▁em	-10.131
▁para	-10.1313
▁worried	-10.1315
▁DNA	-10.1316
▁infections	-10.1326
▁signed	-10.1326
▁Si	-10.1327
▁[	-10.1335
▁bowl	-10.1336
▁root	-10.1338
▁rice	-10.1347
▁division	-10.1348
ose	-10.1348
▁income	-10.135
▁perform	-10.1356
istic	-10.1357
▁joint	-10.136
▁achieve	-10.1363
▁correct	-10.1366
▁phase	-10.1376
▁Say	-10.1377
▁emergency	-10.1385
▁Robert	-10.1386
▁scene	-10.1388
▁vi	-10.1394
▁nervous	-10.1404
▁multi	-10.1408
▁tri	-10.1413
▁Mrs	-10.1418
▁tools	-10.1419
▁mix	-10.1419
▁link	-10.142
▁except	-10.1421
bar	-10.1426
▁files	-10.1427
▁benefits	-10.1433
▁promote	-10.1436
▁credit	-10.1437
▁removed	-10.1439
▁confirmed	-10.1441
▁users	-10.1447
▁routine	-10.1447
▁Los	-10.145
▁confidence	-10.1452
▁2019	-10.1453
▁listening	-10.1454
▁visual	-10.1459
▁application	-10.1459
▁requires	-10.1462
▁Ser	-10.1473
▁purchase	-10.1479
▁Szczecin	-10.148
▁department	-10.1481
▁Fe	-10.1481
▁mi	-10.1484
▁Pan	-10.1492
▁covered	-10.1494
▁brown	-10.1495
▁angry	-10.15
tan	-10.1503
▁firm	-10.1503
▁increasing	-10.1507
▁Day	-10.1508
▁overall	-10.1508
▁extremely	-10.1518
▁hundred	-10.1528
▁chief	-10.1529
▁review	-10.1534
▁proper	-10.1538
Arabic	-10.1541
▁William	-10.1543
▁election	-10.1544
▁nobody	-10.1549
▁Star	-10.1555
▁escape	-10.1561
▁Boy	-10.1562
▁Spanish	-10.1568
▁helpful	-10.1568
▁launch	-10.1573
▁fever	-10.1593
▁bi	-10.1593
nic	-10.1594
▁sc	-10.1598
▁closer	-10.1599
▁Warsaw	-10.161
▁Peter	-10.1611
▁Michael	-10.1615
▁herself	-10.1617
ice	-10.1617
▁apart	-10.1617
▁details	-10.1619
▁possibly	-10.162
ability	-10.162
▁Kim	-10.162
▁League	-10.1625
▁29	-10.1625
▁Street	-10.163
▁Both	-10.1635
▁pack	-10.1642
ration	-10.1645
ou	-10.1648
▁disorder	-10.1653
gue	-10.1654
▁expression	-10.166
▁smoke	-10.1669
▁rain	-10.1669
▁forced	-10.167
▁Q	-10.1674
nia	-10.1678
▁Set	-10.1683
oma	-10.1684
▁exchange	-10.1688
▁upset	-10.1693
lar	-10.1694
▁shower	-10.1695
▁fell	-10.1696
yn	-10.1698
▁broke	-10.1699
▁Kong	-10.1701
but	-10.1703
▁occurs	-10.1704
▁College	-10.1717
▁Cor	-10.1718
▁manager	-10.1722
fu	-10.1729
▁eggs	-10.173
▁chair	-10.1735
▁schedule	-10.1736
▁relatively	-10.1739
▁Tra	-10.174
▁appreciate	-10.1743
▁bus	-10.1747
▁internal	-10.1748
ag	-10.1753
▁depending	-10.1753
▁Was	-10.1757
▁brothers	-10.1763
▁communication	-10.1764
▁Each	-10.1766
▁weapons	-10.1775
▁bought	-10.1781
▁quiet	-10.1784
of	-10.1792
▁pan	-10.1795
▁Select	-10.1795
▁advice	-10.1796
▁situations	-10.1797
▁church	-10.1799
ator	-10.1803
▁applied	-10.1806
▁port	-10.1808
▁politics	-10.1811
▁Facebook	-10.1811
rate	-10.1812
▁List	-10.1813
ther	-10.1817
▁feels	-10.1823
▁micro	-10.1825
▁desire	-10.1835
▁flat	-10.1835
ham	-10.1837
▁Art	-10.1841
▁completed	-10.1841
▁Sorry	-10.1845
▁planning	-10.1858
▁selling	-10.1859
can	-10.186
▁user	-10.187
▁talked	-10.187
▁elected	-10.1872
▁frequently	-10.1881
30	-10.1882
▁Captain	-10.189
▁professor	-10.1895
▁Sal	-10.1902
val	-10.1909
▁defense	-10.191
▁fiber	-10.191
▁operating	-10.1911
▁1999	-10.1916
▁suit	-10.1917
itis	-10.1919
▁defined	-10.1921
▁Research	-10.1922
▁till	-10.1922
▁clearly	-10.1932
▁relative	-10.1933
gr	-10.1935
▁1970	-10.1941
▁fair	-10.1943
ible	-10.1947
▁Bureau	-10.195
▁soul	-10.1958
port	-10.196
▁thin	-10.1969
▁Music	-10.1971
▁Hold	-10.1971
▁turns	-10.1977
▁Their	-10.1977
ola	-10.1989
▁symbol	-10.1997
▁tests	-10.1998
▁biggest	-10.2001
▁Tom	-10.2006
ero	-10.2013
pp	-10.2015
▁scared	-10.2017
▁cook	-10.2021
▁calls	-10.2022
▁wedding	-10.2036
lon	-10.2037
▁pen	-10.2038
▁university	-10.2045
▁mode	-10.2046
▁quarter	-10.2046
▁Show	-10.2051
▁limit	-10.2052
▁engine	-10.2052
▁recorded	-10.2055
ight	-10.2062
sen	-10.2064
▁meal	-10.2065
▁worst	-10.2066
▁wonderful	-10.2079
▁bone	-10.2085
▁struggle	-10.2091
▁statement	-10.2107
▁Mom	-10.2108
ken	-10.2117
▁labor	-10.2121
▁identify	-10.2136
▁hotel	-10.2144
▁citizens	-10.2152
▁spending	-10.2153
off	-10.2154
▁efforts	-10.2155
▁Law	-10.2156
wo	-10.2157
▁sad	-10.2157
▁Dan	-10.2159
▁Greek	-10.2162
▁mess	-10.2165
▁uses	-10.2171
zi	-10.2182
nie	-10.2194
▁environmental	-10.2197
▁Call	-10.2198
▁sports	-10.2199
▁truly	-10.2203
▁bridge	-10.2205
▁encourage	-10.2209
ute	-10.2209
▁ra	-10.221
▁widely	-10.2212
▁Though	-10.2218
▁lying	-10.2219
▁jump	-10.2221
▁stores	-10.2223
▁focused	-10.2224
tes	-10.2226
ual	-10.2226
▁lock	-10.223
▁Choose	-10.2235
▁remind	-10.2236
▁arrest	-10.2242
▁crisis	-10.225
eg	-10.2255
▁rare	-10.2259
▁dress	-10.2261
▁fuel	-10.2261
▁greatest	-10.2262
her	-10.2272
▁Super	-10.2274
vis	-10.2274
gg	-10.2281
▁feature	-10.2282
▁players	-10.2283
▁Van	-10.2283
▁chart	-10.2285
▁survive	-10.2286
▁lawyer	-10.2289
▁throat	-10.2291
▁reward	-10.2292
▁laws	-10.2293
▁va	-10.2302
▁solid	-10.2306
▁impossible	-10.2307
▁initial	-10.231
▁pa	-10.2322
▁confident	-10.2327
dia	-10.2329
▁devices	-10.233
▁instructions	-10.2331
▁Yo	-10.2334
▁destroy	-10.2341
▁strike	-10.2348
▁luck	-10.2349
all	-10.2356
▁majority	-10.2356
▁lab	-10.236
▁staff	-10.237
▁tired	-10.237
▁busy	-10.2376
▁document	-10.2378
▁powder	-10.238
▁painting	-10.2383
▁request	-10.2394
▁copy	-10.2394
▁association	-10.2406
gy	-10.2411
▁Stay	-10.2415
▁blind	-10.2416
▁Master	-10.2416
ug	-10.2422
▁wound	-10.2422
▁lots	-10.243
▁moon	-10.2434
▁Perhaps	-10.2437
▁UK	-10.2438
▁tough	-10.2442
▁census	-10.2442
▁deserve	-10.2442
▁Shi	-10.2454
ok	-10.2458
lia	-10.2461
▁pregnant	-10.2464
▁southern	-10.2469
▁Apply	-10.2471
▁Pacific	-10.2474
▁shared	-10.2483
▁print	-10.2486
▁driving	-10.249
▁fashion	-10.2495
▁perspective	-10.2495
▁factor	-10.2496
▁boyfriend	-10.2496
▁Never	-10.2498
▁profile	-10.25
▁proud	-10.2502
▁promotion	-10.2506
ów	-10.2506
▁models	-10.2513
bra	-10.2516
side	-10.2519
▁domestic	-10.2532
▁discuss	-10.2533
▁container	-10.2537
▁Today	-10.2545
▁Mor	-10.2548
tus	-10.2548
▁glad	-10.2564
▁decisions	-10.257
▁spirit	-10.2574
▁Asian	-10.2582
▁origin	-10.2592
▁thousand	-10.26
ari	-10.2604
▁schools	-10.2606
▁Gra	-10.2607
▁cash	-10.2611
amine	-10.2612
▁1960	-10.2613
▁Christian	-10.2618
▁farm	-10.2619
ju	-10.2621
▁opinion	-10.2623
▁relax	-10.2625
▁brush	-10.2625
▁Cup	-10.2626
▁Han	-10.2627
▁grade	-10.2628
▁strip	-10.2628
▁adult	-10.2639
▁serving	-10.2644
nt	-10.2644
▁leadership	-10.2645
▁Italy	-10.2652
ulate	-10.2655
▁Ya	-10.2656
▁danger	-10.2659
:00	-10.2661
▁fellow	-10.2661
▁officer	-10.2663
▁Prince	-10.2663
▁journal	-10.2665
▁otherwise	-10.2669
▁express	-10.267
▁lucky	-10.2677
ations	-10.2685
ological	-10.2693
nce	-10.2698
25	-10.2699
▁Grand	-10.27
▁pictures	-10.2705
tsu	-10.2708
ria	-10.2711
▁formula	-10.2713
▁actual	-10.2714
▁sleeping	-10.2716
▁route	-10.2719
ff	-10.2721
▁mg	-10.2724
▁Love	-10.2725
▁System	-10.2728
▁branch	-10.273
▁capacity	-10.2731
▁seeds	-10.2734
▁Mexico	-10.2741
▁Ministry	-10.2741
▁1998	-10.2742
▁Time	-10.2747
▁bright	-10.275
▁officials	-10.2752
▁crush	-10.2752
▁Ki	-10.276
▁plenty	-10.2763
▁analysis	-10.2763
pl	-10.2767
▁surprise	-10.277
▁mirror	-10.2774
▁fourth	-10.2778
▁repeat	-10.2778
har	-10.2783
▁beauty	-10.2785
▁Three	-10.2785
▁hearing	-10.2791
▁advance	-10.2792
▁solve	-10.2793
▁mobile	-10.2795
▁chicken	-10.2797
▁mad	-10.2799
▁strange	-10.2804
▁sand	-10.2812
▁vote	-10.2815
▁pregnancy	-10.2818
▁wood	-10.2825
▁stuck	-10.2829
▁spring	-10.2829
fer	-10.2834
▁dying	-10.2834
▁Th	-10.2835
▁dose	-10.2839
▁shirt	-10.2841
▁concerned	-10.2849
▁certainly	-10.2857
▁none	-10.2862
▁Ke	-10.2863
og	-10.2864
▁acts	-10.2866
▁jobs	-10.2876
▁Committee	-10.2878
▁li	-10.2884
▁previously	-10.289
▁scientists	-10.2892
▁31	-10.2907
▁th	-10.2907
ook	-10.2908
▁parent	-10.2912
We	-10.2922
40	-10.2922
nch	-10.2923
▁victim	-10.2925
▁Old	-10.2927
▁equipment	-10.2927
▁wine	-10.2932
▁wild	-10.2933
▁specifically	-10.2936
sis	-10.2937
ien	-10.2938
▁Americans	-10.2941
▁Tap	-10.2945
▁apartment	-10.2953
▁techniques	-10.2953
▁transfer	-10.2954
▁despite	-10.2955
▁edge	-10.296
gra	-10.2964
▁receptor	-10.2965
uk	-10.2972
ura	-10.2972
▁sides	-10.2975
▁breast	-10.2983
▁anger	-10.2992
▁threat	-10.2993
▁organizations	-10.2994
ture	-10.2994
▁Ch	-10.2995
▁fingers	-10.2997
▁Type	-10.3
▁sky	-10.3002
▁injury	-10.3005
▁decrease	-10.3007
▁kinds	-10.301
í	-10.301
qu	-10.3026
ese	-10.303
tle	-10.3035
▁stated	-10.3038
▁allowing	-10.304
▁folder	-10.3044
▁winter	-10.3049
▁responsibility	-10.305
▁hundreds	-10.3055
af	-10.3057
▁realized	-10.306
▁attended	-10.3065
▁sensitive	-10.3066
▁killer	-10.3071
▁weak	-10.3071
cho	-10.3074
▁songs	-10.3075
uff	-10.3079
▁settlement	-10.3079
▁claims	-10.3084
▁forever	-10.3091
▁80	-10.3096
▁sa	-10.3098
▁joke	-10.3101
▁evening	-10.3101
ي	-10.3106
▁weather	-10.3106
▁Under	-10.3111
▁dogs	-10.3111
▁password	-10.3111
ory	-10.3112
▁normally	-10.3113
▁Know	-10.3115
▁Nations	-10.3116
▁expensive	-10.3117
▁context	-10.3117
▁laugh	-10.3124
ctor	-10.3131
▁switch	-10.3153
▁shop	-10.3156
▁fabric	-10.3162
▁strategy	-10.3162
▁naturally	-10.3162
des	-10.3168
▁background	-10.3177
▁marry	-10.318
▁lunch	-10.319
▁minister	-10.3191
▁exposure	-10.3196
▁CD	-10.3197
▁metres	-10.3199
ax	-10.3201
▁tool	-10.3208
▁Stop	-10.3213
iz	-10.3215
▁mention	-10.3218
▁NGC	-10.3219
▁1997	-10.3225
▁castle	-10.3225
▁ideal	-10.323
▁terrible	-10.323
qua	-10.3233
tter	-10.3234
▁chronic	-10.3236
▁magazine	-10.3237
▁mainly	-10.3254
12	-10.3256
▁kidney	-10.3259
▁channel	-10.326
▁girlfriend	-10.3265
▁regularly	-10.3265
nes	-10.3266
▁Note	-10.3266
▁adding	-10.3267
▁relations	-10.3271
▁decades	-10.3271
▁bringing	-10.3275
▁religion	-10.3281
▁reduced	-10.3292
Z	-10.3295
▁empty	-10.3299
▁paint	-10.33
▁dealing	-10.3304
▁syndrome	-10.3327
▁truck	-10.3333
▁dish	-10.3336
▁degrees	-10.3344
▁*	-10.3347
▁Val	-10.3351
▁mountain	-10.3353
▁walls	-10.3354
pir	-10.3355
▁totally	-10.3359
▁recommend	-10.3359
▁directed	-10.3362
▁surrounding	-10.3364
▁debut	-10.3366
ome	-10.3372
▁weird	-10.3374
low	-10.3376
top	-10.3386
▁relieve	-10.3389
gan	-10.3391
art	-10.3392
▁Dis	-10.3392
▁90	-10.3394
str	-10.3402
▁experiences	-10.3403
▁cooking	-10.3415
▁bleeding	-10.3417
tz	-10.342
▁welcome	-10.3431
▁storm	-10.3431
▁ingredients	-10.3433
ini	-10.3435
▁egg	-10.3442
▁experiment	-10.3442
▁crack	-10.3443
▁tight	-10.3445
sha	-10.3449
par	-10.3451
▁grown	-10.3454
▁deliver	-10.3455
berg	-10.3457
▁pattern	-10.3461
hu	-10.3463
ano	-10.3468
▁le	-10.347
▁hero	-10.3471
br	-10.3477
▁Game	-10.3478
▁cutting	-10.3479
▁solar	-10.348
▁capable	-10.3486
▁Inter	-10.3486
▁Write	-10.349
▁wave	-10.3492
▁smooth	-10.3492
▁identity	-10.3495
▁finger	-10.3503
▁properly	-10.351
▁‘	-10.3516
▁ha	-10.352
▁Bank	-10.3536
▁replaced	-10.3537
▁Got	-10.3539
ised	-10.3543
▁1994	-10.3549
ants	-10.3556
▁launched	-10.3558
▁equation	-10.356
▁da	-10.357
▁2020	-10.3571
▁investigation	-10.3571
▁sight	-10.3573
▁format	-10.3573
▁reflect	-10.3577
▁1996	-10.3578
▁arrested	-10.358
▁Academy	-10.3583
▁originally	-10.3583
▁stem	-10.3584
▁birthday	-10.3596
▁infected	-10.36
end	-10.3601
▁suffer	-10.3605
▁Last	-10.3608
▁profit	-10.3608
▁basically	-10.3608
▁producer	-10.3612
ef	-10.3618
▁teaching	-10.3621
▁bread	-10.3631
war	-10.3637
▁primarily	-10.3642
▁spoken	-10.3642
▁sector	-10.3643
▁numerous	-10.3648
▁estimated	-10.3652
kh	-10.3652
In	-10.3655
▁entirely	-10.3655
▁fluid	-10.3658
▁democracy	-10.3658
▁Everything	-10.3666
▁Syrian	-10.3668
▁load	-10.3672
▁journey	-10.3678
▁sh	-10.368
▁cleaning	-10.3682
▁cheese	-10.3684
▁stronger	-10.3686
pha	-10.3688
rn	-10.369
▁fan	-10.3695
▁Statistics	-10.3696
▁Ph	-10.3697
60	-10.3699
▁calories	-10.3702
▁Nu	-10.3707
▁tiny	-10.3707
ath	-10.3707
▁Ru	-10.3709
▁atmosphere	-10.372
▁roof	-10.372
▁Nothing	-10.372
▁trap	-10.3723
ella	-10.3725
▁height	-10.3726
▁winning	-10.3727
▁Lady	-10.373
▁starts	-10.3731
▁testing	-10.3736
▁cap	-10.3737
ا	-10.3738
▁du	-10.3745
▁Awards	-10.3749
▁argument	-10.375
▁suspect	-10.3751
$	-10.3753
▁("	-10.3753
▁patterns	-10.3755
▁faith	-10.3759
▁guide	-10.3767
ole	-10.3767
▁characters	-10.3768
▁absolutely	-10.3773
ris	-10.3779
ón	-10.3783
ik	-10.3786
▁broad	-10.3789
▁colors	-10.3791
▁reports	-10.3791
▁leads	-10.3795
▁gently	-10.3804
▁1995	-10.3804
▁2015,	-10.3808
▁suffering	-10.3818
▁Green	-10.3824
▁apple	-10.3825
▁Ly	-10.3825
▁projects	-10.3826
▁industrial	-10.3828
▁Lee	-10.3828
▁del	-10.383
▁victims	-10.3831
▁Mark	-10.3838
pri	-10.3839
▁About	-10.3841
▁remained	-10.3842
▁provides	-10.3846
▁500	-10.3849
▁zero	-10.3852
ake	-10.3859
▁reference	-10.3859
▁aim	-10.3862
▁noise	-10.3862
▁Middle	-10.3865
▁fail	-10.3865
▁parties	-10.3867
▁coast	-10.387
▁dear	-10.3875
▁2,	-10.3876
▁giant	-10.3877
▁prior	-10.3879
▁formation	-10.3879
▁bite	-10.3881
▁tall	-10.3882
▁studying	-10.3889
▁semi	-10.3894
▁plate	-10.39
▁Father	-10.3901
▁(3	-10.3906
▁explore	-10.3907
▁2017,	-10.3907
▁filled	-10.3908
▁react	-10.3911
▁Mc	-10.3913
80	-10.3913
▁Museum	-10.3919
▁notes	-10.3921
ments	-10.3922
▁pool	-10.3922
▁jail	-10.3926
▁loose	-10.3927
▁concern	-10.3928
▁turning	-10.393
nk	-10.3931
▁split	-10.3931
▁resulting	-10.3936
ib	-10.3937
▁represented	-10.3947
▁Born	-10.3948
▁$1	-10.3955
▁mild	-10.3957
▁Maria	-10.3966
▁stone	-10.3966
▁literature	-10.3968
▁genetic	-10.3968
▁era	-10.3974
▁suddenly	-10.3976
▁Big	-10.3977
▁secure	-10.3985
▁politician	-10.3991
ens	-10.3993
▁Em	-10.3993
illa	-10.3998
▁enemy	-10.3998
▁increases	-10.3999
▁thanks	-10.3999
ius	-10.4
▁library	-10.4005
▁im	-10.4011
▁offered	-10.4013
▁destroyed	-10.402
cle	-10.4022
▁harder	-10.4023
cin	-10.4029
▁butter	-10.4033
70	-10.4034
ever	-10.4038
ery	-10.4038
▁sharp	-10.4042
▁Jan	-10.405
▁observed	-10.4052
▁coat	-10.4052
▁identified	-10.406
▁justice	-10.4061
▁photos	-10.4064
tern	-10.407
▁Film	-10.4078
▁Yu	-10.4086
▁Social	-10.4087
▁containing	-10.4088
▁replace	-10.4089
▁Ah	-10.4093
▁journalist	-10.4096
▁score	-10.411
▁grand	-10.4116
▁measures	-10.4118
▁install	-10.412
▁personality	-10.412
▁forest	-10.4121
▁entered	-10.4123
▁nurse	-10.4129
▁Fu	-10.4133
▁controlled	-10.4133
▁conference	-10.4135
▁Someone	-10.4136
▁fe	-10.4136
▁exact	-10.4137
mal	-10.4139
▁illegal	-10.4147
▁hi	-10.4149
▁Br	-10.4154
▁ro	-10.4155
▁operation	-10.4161
▁contrast	-10.4166
▁immune	-10.4166
▁opposite	-10.4166
▁owe	-10.4169
▁selected	-10.4169
▁extreme	-10.4179
▁artists	-10.4182
▁medium	-10.4185
▁massive	-10.4189
ue	-10.4196
tive	-10.4198
▁kick	-10.4206
▁frame	-10.4209
▁vaccine	-10.421
▁Far	-10.4211
▁organized	-10.4231
▁owned	-10.4233
▁oral	-10.4234
ani	-10.4235
▁intelligence	-10.4235
▁Pu	-10.4237
▁resistance	-10.4248
head	-10.4252
▁federal	-10.4254
▁blame	-10.4254
like	-10.4256
▁represent	-10.4257
▁letting	-10.4264
▁van	-10.4266
▁distribution	-10.4266
▁2016,	-10.4274
ara	-10.428
▁package	-10.428
over	-10.4281
▁nerve	-10.4281
▁carried	-10.4292
▁assume	-10.4292
▁Turn	-10.43
▁films	-10.43
▁involves	-10.4301
▁heal	-10.4305
ition	-10.431
▁begins	-10.431
▁par	-10.4313
▁Nguyen	-10.4317
▁Everyone	-10.4319
▁historical	-10.4321
▁Cho	-10.4323
▁carefully	-10.4323
▁incident	-10.4323
▁wire	-10.4324
▁compound	-10.4324
▁Thanks	-10.4328
well	-10.4329
▁trans	-10.4333
▁1950	-10.4344
▁Cal	-10.4345
▁concerns	-10.4346
▁magic	-10.4351
▁angle	-10.4354
▁lay	-10.4355
▁column	-10.4361
▁injection	-10.437
▁Something	-10.4374
▁tested	-10.438
▁trained	-10.4384
▁flavor	-10.4387
▁supported	-10.4391
▁processes	-10.4392
▁paying	-10.4395
▁Cat	-10.4396
vent	-10.4408
▁circle	-10.441
▁poly	-10.4411
▁trigger	-10.4413
▁dust	-10.4419
▁Mother	-10.4421
▁soldiers	-10.4423
▁painful	-10.4424
▁kitchen	-10.4432
▁remaining	-10.4436
▁Ac	-10.4439
▁combined	-10.444
▁sat	-10.4443
▁agreed	-10.4445
lf	-10.4445
▁pe	-10.4448
▁Brazil	-10.4449
▁spoke	-10.4451
med	-10.4455
phe	-10.4455
▁mentioned	-10.4458
▁debt	-10.4458
No	-10.4474
▁cm	-10.4475
);	-10.4476
▁vitamin	-10.4482
▁Um	-10.4484
▁communities	-10.449
▁Leave	-10.449
5%	-10.4492
▁managed	-10.4496
▁refer	-10.4497
▁Work	-10.4499
▁arrived	-10.4501
▁classes	-10.4505
din	-10.4506
bol	-10.4507
▁complain	-10.4515
What	-10.4519
▁gender	-10.4522
▁nor	-10.4524
▁recording	-10.4525
▁Mer	-10.4526
▁Alex	-10.4533
▁visible	-10.4535
ray	-10.4535
▁hydrogen	-10.4536
▁satellite	-10.4541
▁appeal	-10.4541
▁guard	-10.4542
▁pure	-10.4546
▁definitely	-10.4548
▁Bro	-10.4552
▁1992	-10.4555
▁portion	-10.4558
▁cards	-10.4559
▁trace	-10.458
▁fool	-10.458
▁drain	-10.4586
▁2018,	-10.4589
▁electronic	-10.4596
▁diseases	-10.4597
▁breaking	-10.4598
▁closely	-10.4598
hy	-10.4598
▁70	-10.4599
▁Prime	-10.4601
▁technique	-10.4602
▁Cu	-10.4602
▁plays	-10.4607
▁mixed	-10.4619
right	-10.4624
▁Gar	-10.4629
bor	-10.463
▁tu	-10.4634
▁describe	-10.4639
▁Play	-10.4644
▁seriously	-10.4644
▁bathroom	-10.4653
▁awarded	-10.4653
▁therapist	-10.4656
zu	-10.4657
▁Gal	-10.4661
▁row	-10.4663
▁newspaper	-10.4663
▁minor	-10.4664
▁Actually	-10.4665
▁league	-10.4665
▁burning	-10.4667
▁institutions	-10.4668
▁2014,	-10.467
▁staying	-10.468
▁Port	-10.4681
}	-10.4685
▁Government	-10.4685
pen	-10.4685
▁applications	-10.4688
▁reform	-10.4689
▁revolution	-10.4691
▁internet	-10.4692
▁comfort	-10.4695
az	-10.4697
ball	-10.47
▁sequence	-10.4705
▁transition	-10.4707
je	-10.4707
osis	-10.4711
▁worldwide	-10.4711
▁pleasure	-10.4711
▁letters	-10.4712
▁appointment	-10.4712
▁bra	-10.4714
cause	-10.4716
▁familiar	-10.4718
▁Up	-10.4719
▁loud	-10.4719
▁authority	-10.4721
clo	-10.4723
▁sites	-10.4727
▁Ver	-10.473
vin	-10.4733
▁chosen	-10.4737
▁definition	-10.4738
ö	-10.4744
▁romantic	-10.4744
▁hyper	-10.4746
▁roll	-10.4746
▁records	-10.4749
water	-10.4759
▁computers	-10.4763
▁traffic	-10.4764
▁soda	-10.4771
▁crash	-10.4771
▁transport	-10.4772
▁galaxy	-10.4778
▁discussion	-10.4782
▁45	-10.4784
▁constant	-10.4786
▁foundation	-10.4789
ear	-10.4789
▁customers	-10.4797
▁Com	-10.4804
▁1989	-10.4805
▁Martin	-10.4807
▁comment	-10.4809
▁experienced	-10.4809
▁Festival	-10.4818
ei	-10.4819
▁proposed	-10.482
vir	-10.4824
nder	-10.4825
86	-10.4826
▁agents	-10.4827
▁Long	-10.4829
▁facing	-10.4831
▁Spain	-10.4834
▁actor	-10.4834
rum	-10.4837
▁monitor	-10.484
▁operations	-10.4842
ü	-10.4843
▁(20	-10.4846
▁lu	-10.4847
▁habit	-10.4851
bit	-10.4852
▁flag	-10.4852
tel	-10.4859
▁amounts	-10.4861
bal	-10.4862
▁listed	-10.4863
▁urban	-10.4864
▁monster	-10.4865
▁nearby	-10.4867
yo	-10.4872
▁younger	-10.4875
▁Rome	-10.4876
▁roots	-10.488
ida	-10.4884
▁Company	-10.4885
▁creative	-10.4898
vers	-10.4899
ld	-10.4908
▁thick	-10.4908
▁peak	-10.4911
▁existing	-10.4912
ably	-10.4913
▁Sta	-10.4915
▁missed	-10.4917
tte	-10.4918
xi	-10.4919
ically	-10.4919
▁rub	-10.4923
Do	-10.4927
▁(4	-10.4928
▁Church	-10.4932
▁2011,	-10.4938
▁prepare	-10.494
▁(18	-10.4944
▁Ten	-10.4946
▁typical	-10.4949
▁cable	-10.4962
▁Pat	-10.4962
▁cars	-10.4964
▁volunteer	-10.4965
▁Life	-10.4968
ó	-10.4968
cept	-10.4969
▁Home	-10.497
▁Christmas	-10.4972
▁sauce	-10.4972
▁Chief	-10.4973
mate	-10.4977
▁engage	-10.4977
▁mono	-10.498
▁planned	-10.4981
▁rose	-10.4987
▁determined	-10.4988
▁inner	-10.499
▁Eastern	-10.4992
ima	-10.5003
row	-10.5004
▁sodium	-10.5006
▁cloth	-10.5007
ix	-10.5007
▁Mal	-10.501
▁rec	-10.5012
▁Island	-10.5012
▁Rights	-10.5014
▁auto	-10.5014
▁stream	-10.5015
It	-10.5016
▁reducing	-10.5021
▁weekend	-10.5022
▁Games	-10.5026
▁Eat	-10.5027
▁Communist	-10.5033
▁sta	-10.5034
11	-10.5037
▁seemed	-10.504
▁lemon	-10.5041
back	-10.5043
▁afford	-10.5044
▁province	-10.5049
▁Hall	-10.5049
ica	-10.5057
▁reveal	-10.5058
tar	-10.5063
▁manner	-10.5065
Q	-10.5066
▁hat	-10.5066
wood	-10.5069
work	-10.5072
▁improvement	-10.5074
▁flash	-10.5075
▁initially	-10.5076
late	-10.5079
▁Secretary	-10.5082
▁vary	-10.5082
▁fruits	-10.5086
▁Next	-10.5095
▁contribute	-10.5097
▁Water	-10.5098
▁Whatever	-10.5098
▁flowers	-10.5101
▁employees	-10.5103
▁Out	-10.5105
▁Education	-10.5109
▁senior	-10.5115
▁poet	-10.5119
▁defeat	-10.512
▁matters	-10.512
▁shock	-10.512
▁suggested	-10.5124
▁neighborhood	-10.5129
▁evil	-10.513
▁policies	-10.5136
▁Royal	-10.514
▁nail	-10.5141
▁Development	-10.5144
cal	-10.5149
▁effectively	-10.515
▁Hanoi	-10.515
▁Sp	-10.5155
▁III	-10.5157
▁2012,	-10.5163
▁challenges	-10.5164
▁conduct	-10.5166
ban	-10.5168
▁sharing	-10.5171
00	-10.5172
▁vinegar	-10.5177
sign	-10.5184
▁Summer	-10.5185
▁Using	-10.5187
▁crowd	-10.5189
▁h	-10.5191
▁motor	-10.5193
▁1993	-10.5199
▁orange	-10.5206
▁medal	-10.5208
▁Adam	-10.5211
▁ends	-10.5211
▁console	-10.5212
▁Charles	-10.5213
▁buildings	-10.5213
pu	-10.5215
▁Catholic	-10.5219
house	-10.5227
▁nations	-10.5228
▁significantly	-10.5235
▁functions	-10.5238
▁1991	-10.5241
▁Empire	-10.5247
▁happiness	-10.5247
ns	-10.5248
▁promoted	-10.5249
▁breathe	-10.5252
▁ordered	-10.5259
▁Anti	-10.5264
uc	-10.5264
sol	-10.5272
▁adjust	-10.5275
▁providing	-10.5275
▁obvious	-10.5277
▁bullet	-10.5277
▁advanced	-10.528
▁adults	-10.5281
▁museum	-10.5282
rist	-10.5285
ox	-10.5286
▁Cause	-10.5286
▁Should	-10.5289
▁Science	-10.529
ky	-10.5292
▁Province	-10.5296
tain	-10.5296
▁complicated	-10.5298
▁prescription	-10.5303
▁weapon	-10.5304
▁Prize	-10.5317
▁procedure	-10.5319
▁gate	-10.5325
▁Nobody	-10.5325
aries	-10.533
▁possibility	-10.5338
▁strain	-10.5338
▁rates	-10.5338
▁native	-10.5341
▁restaurant	-10.5341
▁combat	-10.5341
▁pal	-10.5342
▁Despite	-10.5345
▁Bill	-10.5352
▁meals	-10.5353
▁flying	-10.5363
▁32	-10.5364
▁Club	-10.5373
▁net	-10.5376
▁tip	-10.5382
eb	-10.5387
pos	-10.5388
thi	-10.5395
nate	-10.5397
▁trials	-10.5398
"?	-10.5406
▁regions	-10.5408
▁afternoon	-10.5408
▁boost	-10.5408
net	-10.5416
OS	-10.5416
ado	-10.5419
▁recognized	-10.5422
15	-10.5422
▁filter	-10.5422
ato	-10.5423
▁HIV	-10.5423
▁Being	-10.5429
▁Security	-10.5429
▁Jesus	-10.543
▁repair	-10.543
▁tongue	-10.543
▁exposed	-10.5438
▁Ed	-10.544
▁sample	-10.5442
▁mark	-10.5443
▁storage	-10.5444
▁dreams	-10.5445
▁Ji	-10.5445
▁suppose	-10.5446
▁steam	-10.5451
mat	-10.5453
▁rank	-10.5453
▁fi	-10.5454
del	-10.5461
▁Has	-10.5463
▁Chile	-10.547
uring	-10.5471
▁excuse	-10.5472
▁communicate	-10.5472
▁decade	-10.5473
▁400	-10.5473
▁Pol	-10.5474
▁Henry	-10.5479
coming	-10.548
▁Division	-10.5483
▁immediate	-10.5489
▁creation	-10.5495
▁talent	-10.5499
▁academic	-10.5501
▁export	-10.5502
▁tour	-10.5502
▁invited	-10.5505
▁excess	-10.5506
▁annual	-10.5517
▁log	-10.5518
▁teams	-10.552
▁excited	-10.5522
▁reactions	-10.5528
▁silver	-10.5529
▁Press	-10.5535
gh	-10.5537
ect	-10.5538
▁swelling	-10.5543
▁suicide	-10.5544
▁broadcast	-10.5544
▁Xi	-10.5544
▁Dar	-10.5551
▁Microsoft	-10.5558
▁external	-10.5558
▁cotton	-10.5558
▁sentence	-10.5559
ette	-10.5561
▁fixed	-10.5563
▁dropped	-10.5567
▁picked	-10.5568
▁guns	-10.5568
▁Director	-10.5571
ied	-10.5572
▁discover	-10.5573
▁bunch	-10.5575
rine	-10.5577
lor	-10.5579
▁opportunities	-10.5579
und	-10.558
▁ob	-10.5588
▁Bel	-10.559
pre	-10.5595
▁Free	-10.5598
▁lake	-10.5598
hold	-10.5601
▁falling	-10.5601
▁crew	-10.5603
lation	-10.5605
▁35	-10.5605
▁birds	-10.5606
▁2010,	-10.5615
len	-10.5622
▁unknown	-10.5624
▁script	-10.5624
▁achieved	-10.5626
mark	-10.5627
▁tail	-10.5633
cent	-10.5638
ify	-10.5643
▁budget	-10.5644
17	-10.5645
▁Philippines	-10.5647
▁studio	-10.5652
oli	-10.5652
▁prices	-10.5652
▁Food	-10.5652
▁tension	-10.5652
▁everywhere	-10.5654
▁buying	-10.5656
▁2013,	-10.5657
▁presented	-10.5659
▁Studies	-10.5659
▁rescue	-10.5659
▁attitude	-10.5666
CBS	-10.567
▁suck	-10.5671
▁operate	-10.5674
▁Bay	-10.568
▁Mike	-10.568
▁representative	-10.5681
cer	-10.5686
▁ju	-10.5687
▁ill	-10.5688
▁bond	-10.5688
▁physician	-10.5688
▁cur	-10.5692
▁moral	-10.5693
▁god	-10.5694
▁organic	-10.5695
▁Richard	-10.5696
ena	-10.5699
▁consequences	-10.5702
▁treatments	-10.5704
▁drawing	-10.5705
▁obtained	-10.5707
day	-10.5708
▁comp	-10.5714
▁pin	-10.5716
uri	-10.5719
▁Back	-10.5723
▁linked	-10.5723
▁sending	-10.5723
▁Christ	-10.5724
▁knife	-10.5724
▁scar	-10.5729
▁occurred	-10.5733
▁formal	-10.5736
nu	-10.5738
▁yesterday	-10.5739
▁ch	-10.5739
▁hall	-10.5739
▁Later	-10.5743
90	-10.5744
▁drama	-10.5745
▁producing	-10.5747
▁musical	-10.5749
▁obviously	-10.5752
ela	-10.5753
ada	-10.5756
▁tab	-10.5763
▁attacks	-10.5766
▁pi	-10.5767
▁Android	-10.5769
bel	-10.5771
▁indicate	-10.5773
poli	-10.5776
▁Bur	-10.578
▁boot	-10.5785
▁usual	-10.579
▁cop	-10.5795
▁executive	-10.5798
▁narrow	-10.5798
▁literally	-10.5798
▁tasks	-10.5805
ound	-10.5805
▁quit	-10.5809
mu	-10.5811
▁sale	-10.5817
▁rat	-10.5822
19	-10.5822
▁kit	-10.5822
▁winner	-10.5823
py	-10.5823
▁powers	-10.5824
▁Saint	-10.5842
▁300	-10.5845
▁fake	-10.5849
▁choices	-10.5853
▁businesses	-10.5854
▁hanging	-10.5864
▁ya	-10.5874
▁Learn	-10.5885
▁relief	-10.5887
▁browser	-10.5888
bro	-10.589
▁coach	-10.5894
▁importance	-10.5894
▁grab	-10.5897
▁forgive	-10.5901
▁manufacturing	-10.5901
▁pocket	-10.5901
▁Public	-10.5901
▁constellation	-10.5909
▁depend	-10.5909
▁tube	-10.5919
▁treating	-10.5921
▁steal	-10.5922
ay	-10.5924
▁Doing	-10.5928
▁stable	-10.5932
▁owner	-10.5934
▁Min	-10.594
ux	-10.5944
▁knowing	-10.5946
▁regime	-10.5952
▁cats	-10.5956
▁illness	-10.5956
▁concentration	-10.5959
▁urine	-10.5962
▁edition	-10.5963
▁gene	-10.5965
ace	-10.5966
▁adopted	-10.5968
▁Ce	-10.5974
▁territory	-10.5976
lip	-10.5978
▁brief	-10.5979
▁Ana	-10.5986
▁fundamental	-10.5986
▁unable	-10.5989
▁Sho	-10.5993
▁objective	-10.5995
▁Jim	-10.5996
▁bound	-10.5998
▁orders	-10.6
▁earned	-10.6004
cor	-10.6004
▁biological	-10.6014
ular	-10.6015
▁Olympics	-10.6018
▁intended	-10.602
▁error	-10.6021
active	-10.6022
▁admit	-10.6027
▁mechanism	-10.6029
▁random	-10.6029
▁1945	-10.6029
▁fields	-10.603
▁depends	-10.6032
oo	-10.6033
▁Gen	-10.6039
such	-10.6041
▁snow	-10.6045
▁Arts	-10.6047
▁engineering	-10.6048
▁lean	-10.6049
ata	-10.6055
▁argue	-10.6056
▁walked	-10.6064
▁grave	-10.6064
▁Vo	-10.6066
▁architecture	-10.6066
▁friendly	-10.6079
ons	-10.6083
▁messages	-10.6083
▁examples	-10.6085
▁Part	-10.6088
▁tumor	-10.6089
▁doctors	-10.6089
pping	-10.6091
▁BC	-10.6096
▁custom	-10.61
▁ba	-10.6103
▁Don	-10.6103
▁Always	-10.6104
list	-10.6105
▁predict	-10.6107
wn	-10.6115
▁increasingly	-10.6115
▁solutions	-10.6119
▁warning	-10.6123
▁differences	-10.6126
▁Having	-10.6128
▁surprised	-10.6132
▁baking	-10.6135
▁marketing	-10.6136
▁lift	-10.6139
▁secondary	-10.614
sky	-10.6142
▁manufacturer	-10.615
▁sin	-10.6154
▁drunk	-10.6157
met	-10.6162
▁2009,	-10.6162
▁prime	-10.6163
▁Such	-10.6164
field	-10.6164
ony	-10.6167
▁orbit	-10.6168
▁components	-10.6168
▁smoking	-10.6172
▁debate	-10.6173
▁substance	-10.6177
▁loan	-10.6178
▁Professor	-10.618
ama	-10.6182
▁meters	-10.6187
▁CA	-10.6192
▁Op	-10.6195
▁equivalent	-10.6195
▁hiding	-10.6195
set	-10.62
ala	-10.6201
▁inflammation	-10.6203
vert	-10.621
▁cloud	-10.6216
▁queen	-10.6221
▁sing	-10.6226
▁cluster	-10.6226
▁exercises	-10.6231
til	-10.6234
▁vessels	-10.6236
▁Wall	-10.6237
press	-10.624
▁hook	-10.6243
▁dozen	-10.6246
▁element	-10.6246
▁electric	-10.6249
▁cough	-10.6251
▁dirty	-10.6251
▁rent	-10.6256
ime	-10.6257
▁existence	-10.6258
ean	-10.6259
▁chemicals	-10.6263
▁phrase	-10.6264
▁concert	-10.6265
▁claimed	-10.6265
▁wipe	-10.6266
▁largely	-10.6267
▁proof	-10.6267
▁shooting	-10.6271
▁Four	-10.6273
▁locked	-10.6276
▁payment	-10.628
▁remote	-10.628
AN	-10.6284
▁Harry	-10.6284
▁gotten	-10.629
▁shaped	-10.6291
eu	-10.6297
▁drops	-10.6297
▁extended	-10.6301
▁damaged	-10.6307
▁Ken	-10.631
nna	-10.6318
▁hormone	-10.6327
cz	-10.6328
▁hydro	-10.6329
▁noticed	-10.633
▁rapidly	-10.633
▁accepted	-10.6336
ney	-10.6339
▁committed	-10.6343
▁mistakes	-10.6346
▁pour	-10.6348
aw	-10.6349
▁millions	-10.6352
iv	-10.636
▁Sara	-10.6366
era	-10.6372
▁Covid	-10.6374
stro	-10.6377
lit	-10.6377
comp	-10.6378
▁Ci	-10.6379
▁divided	-10.6386
▁driver	-10.6388
▁accomplish	-10.6389
sz	-10.639
▁coronavirus	-10.6396
▁neither	-10.6412
▁puppy	-10.6412
▁desert	-10.6412
▁saving	-10.6417
ska	-10.6421
▁theater	-10.6422
▁pur	-10.6423
▁competed	-10.6424
▁introduce	-10.6426
▁Nigeria	-10.6429
▁Bring	-10.6436
▁unusual	-10.6443
▁markets	-10.6446
aka	-10.6448
▁rabbit	-10.6451
dra	-10.6456
▁item	-10.6457
▁customer	-10.6458
▁pretend	-10.646
▁hungry	-10.646
dis	-10.646
rus	-10.6461
▁cake	-10.6462
▁award	-10.6467
▁Mars	-10.647
▁uncomfortable	-10.6475
▁cure	-10.6476
▁streets	-10.6479
▁centuries	-10.6483
▁assist	-10.6483
▁refers	-10.6484
▁platform	-10.6488
▁string	-10.6492
▁dating	-10.6496
▁client	-10.6496
▁machines	-10.6497
▁whenever	-10.6499
▁Colombia	-10.6503
▁fifth	-10.6506
▁grass	-10.6506
▁Gro	-10.651
▁crystal	-10.6515
▁shoulder	-10.652
▁disappear	-10.653
▁cry	-10.6533
▁vehicle	-10.6536
dent	-10.6542
▁u	-10.6548
ros	-10.6548
▁circumstances	-10.6549
▁pray	-10.6549
▁Trans	-10.6551
▁friendship	-10.6553
stra	-10.6554
▁Reg	-10.656
ę	-10.6561
▁Bra	-10.6564
▁Town	-10.6566
▁Os	-10.6569
▁establish	-10.6571
▁Sc	-10.6577
▁Office	-10.6581
▁gu	-10.6582
▁suggests	-10.6582
▁guilty	-10.6584
▁Pri	-10.6588
▁Egypt	-10.6591
▁breakfast	-10.6594
also	-10.6596
▁accounts	-10.6597
▁consists	-10.6598
▁officially	-10.6603
▁technologies	-10.6609
▁entry	-10.661
▁1988	-10.661
▁Sure	-10.661
▁understood	-10.6617
▁babies	-10.6617
▁chose	-10.6621
▁um	-10.6624
▁strategic	-10.6625
▁Cut	-10.6627
▁consumption	-10.6633
▁gentlemen	-10.6634
00,000	-10.6636
▁permanent	-10.6637
▁vice	-10.6639
ump	-10.6639
ography	-10.664
▁Col	-10.664
▁protected	-10.6641
▁Society	-10.6643
with	-10.6646
▁pulled	-10.6648
▁swear	-10.665
ulation	-10.6652
▁Par	-10.6653
▁detail	-10.6653
▁rapid	-10.6663
▁featured	-10.6665
▁asleep	-10.6666
▁Moon	-10.6675
▁collect	-10.6679
▁Carl	-10.6681
II	-10.6684
▁Still	-10.6685
▁inspired	-10.669
▁sword	-10.669
▁alongside	-10.6692
▁Sh	-10.6695
tting	-10.6698
▁household	-10.6708
iness	-10.671
▁ease	-10.6717
▁bro	-10.672
▁Nor	-10.6721
▁clock	-10.6722
ign	-10.6722
▁potentially	-10.6724
gro	-10.6726
▁movies	-10.6727
▁commitment	-10.6733
onic	-10.6733
▁Princess	-10.6734
ugh	-10.6734
ori	-10.6736
▁constantly	-10.6736
▁resolution	-10.6738
▁ka	-10.6739
▁absorb	-10.6739
▁carrying	-10.6744
▁lights	-10.6744
etic	-10.6748
▁plain	-10.6759
ob	-10.6759
▁fl	-10.6759
gin	-10.6763
▁duty	-10.6765
▁officers	-10.6768
BC	-10.677
▁iPhone	-10.677
▁structures	-10.6771
▁tone	-10.6771
▁healing	-10.6772
ack	-10.6775
▁granted	-10.6781
▁answers	-10.6783
▁Hill	-10.6785
▁category	-10.6787
▁vast	-10.6788
▁troops	-10.6788
▁moderate	-10.6789
▁intake	-10.6792
▁sha	-10.6797
▁Land	-10.6797
▁shell	-10.6799
▁Book	-10.6801
!"	-10.6801
▁standards	-10.6804
▁teachers	-10.6806
▁dye	-10.6818
▁Hospital	-10.6819
▁hidden	-10.6819
Co	-10.6819
▁headed	-10.6828
▁childhood	-10.6829
ick	-10.6829
▁revealed	-10.6838
▁promised	-10.684
▁Arab	-10.684
▁fought	-10.6844
chlor	-10.6851
▁define	-10.6852
▁Mel	-10.6855
cus	-10.6859
pic	-10.6861
▁graduated	-10.6864
▁inhibitor	-10.6865
▁Power	-10.6869
▁slide	-10.6869
▁mm	-10.6873
07	-10.6874
▁Order	-10.6874
▁Joe	-10.6875
▁Ram	-10.6875
▁necessarily	-10.6876
▁vocal	-10.6876
▁paste	-10.6879
▁ending	-10.688
▁aircraft	-10.6885
▁Tan	-10.6888
▁CO	-10.69
▁derived	-10.6901
sia	-10.6902
▁gentle	-10.6906
▁deeply	-10.6907
▁YouTube	-10.6909
▁experiencing	-10.6909
▁Southern	-10.6917
▁1987	-10.6918
▁tells	-10.6919
▁corn	-10.6927
▁respectively	-10.6929
ło	-10.6933
▁Ross	-10.6938
▁figured	-10.6946
▁waves	-10.6948
▁protest	-10.695
▁buried	-10.695
▁pursue	-10.695
▁intense	-10.6951
▁Med	-10.6954
▁Children	-10.6959
eth	-10.6962
ties	-10.6967
▁antibiotics	-10.6971
▁ultimately	-10.6972
▁coin	-10.6976
▁offering	-10.6976
▁bother	-10.6978
av	-10.6979
▁UN	-10.6981
▁spa	-10.6983
▁Taiwan	-10.6983
▁si	-10.6984
▁survey	-10.6992
▁inches	-10.6992
wan	-10.6996
tation	-10.6999
▁topic	-10.7005
▁aggressive	-10.7008
ula	-10.7012
▁tradition	-10.7013
▁Sin	-10.7017
▁noted	-10.7018
▁interact	-10.7018
▁stretch	-10.702
▁server	-10.702
▁versions	-10.7023
▁cons	-10.7023
▁planets	-10.7026
▁hardware	-10.7035
▁consult	-10.7042
▁conducted	-10.7044
▁tro	-10.7045
▁washing	-10.7049
▁trend	-10.7052
▁episode	-10.7055
▁defend	-10.706
▁rural	-10.7067
▁ban	-10.7069
▁engaged	-10.7073
ets	-10.7075
▁Tor	-10.708
▁Pay	-10.7082
non	-10.7082
▁Major	-10.7083
▁shadow	-10.7084
▁Remove	-10.7085
▁sport	-10.7086
▁Special	-10.7092
▁perfectly	-10.7098
▁heading	-10.7099
▁Brother	-10.7101
▁Gold	-10.7102
▁tower	-10.7104
▁memories	-10.7108
▁automatically	-10.7109
He	-10.7113
uch	-10.7116
▁App	-10.7118
▁indeed	-10.7119
mes	-10.7122
ock	-10.7129
▁pad	-10.7131
▁Read	-10.7131
▁prominent	-10.7134
▁Thomas	-10.7134
▁Britain	-10.7134
▁tr	-10.7139
▁gained	-10.7143
▁disorders	-10.7144
▁discovery	-10.7147
▁flower	-10.715
▁poll	-10.715
stan	-10.7151
Re	-10.7151
▁singing	-10.7153
▁subsequently	-10.7159
tta	-10.7163
▁Max	-10.7165
▁sum	-10.7169
▁(5	-10.7173
▁champion	-10.7175
▁enable	-10.7177
▁printer	-10.7178
▁extend	-10.718
▁Assembly	-10.7184
▁Police	-10.7185
▁Pra	-10.7189
▁ratio	-10.7189
rrow	-10.7189
▁sore	-10.7189
▁Nam	-10.7191
▁wrap	-10.7191
▁confirm	-10.7193
▁Commission	-10.7194
▁positions	-10.7194
▁Comp	-10.7201
▁Jewish	-10.7201
▁recover	-10.7202
▁1986	-10.7203
▁continues	-10.7204
▁license	-10.7209
bin	-10.7212
▁extract	-10.7212
app	-10.7215
▁spec	-10.7217
▁aspects	-10.7225
▁participated	-10.7226
▁latter	-10.7228
PA	-10.7233
▁inch	-10.7233
▁rush	-10.7236
▁hy	-10.7239
▁Young	-10.7242
lig	-10.7245
▁expressed	-10.7246
▁insurance	-10.7252
▁hoping	-10.7252
lk	-10.7262
▁desk	-10.7263
▁hypo	-10.7267
▁Top	-10.7275
▁Sub	-10.7278
amp	-10.7278
▁Muslim	-10.7286
▁Cra	-10.7291
ville	-10.7293
now	-10.7294
▁wheel	-10.7295
▁pounds	-10.7295
▁scan	-10.7295
▁runs	-10.7296
▁documents	-10.7297
▁partners	-10.7299
▁Doctor	-10.7299
▁prize	-10.7303
▁armed	-10.7303
▁mar	-10.7306
▁governments	-10.731
▁cooperation	-10.7312
ssa	-10.7312
▁designer	-10.7312
nny	-10.7314
▁beach	-10.7318
▁diabetes	-10.732
▁nausea	-10.732
▁rinse	-10.7321
▁Sunday	-10.7321
▁candidate	-10.7325
shed	-10.7328
▁reduction	-10.7329
▁editor	-10.733
fin	-10.7339
arch	-10.734
fish	-10.7351
▁issued	-10.7351
▁Service	-10.7351
▁nest	-10.7354
▁el	-10.7355
▁attend	-10.7355
▁activist	-10.736
▁eastern	-10.7363
▁maximum	-10.7372
▁Fo	-10.7372
▁fa	-10.7372
▁component	-10.7377
▁earn	-10.7378
▁plus	-10.7382
don	-10.7382
▁stroke	-10.7382
▁neuro	-10.7386
hr	-10.7386
▁Foreign	-10.7389
▁composed	-10.7398
99	-10.74
▁Mag	-10.7401
▁periods	-10.7405
▁Kar	-10.7415
▁Control	-10.7415
▁capture	-10.7416
▁cent	-10.7421
AT	-10.7421
▁settings	-10.7422
pon	-10.7427
▁fishing	-10.7429
tine	-10.743
▁Song	-10.7432
lea	-10.7436
▁successfully	-10.7445
▁curve	-10.7448
▁...	-10.7449
lus	-10.7449
▁disaster	-10.745
▁1985	-10.7451
▁videos	-10.7452
▁Light	-10.7452
▁Nazi	-10.7454
▁chat	-10.7457
▁massage	-10.7458
▁calcium	-10.7458
▁Oliver	-10.746
pot	-10.7462
▁Understand	-10.7464
▁applying	-10.7475
▁disc	-10.7475
▁skill	-10.7475
▁drinks	-10.7483
▁holds	-10.7485
▁roughly	-10.7486
▁airport	-10.7487
▁gang	-10.7489
▁passion	-10.749
ale	-10.7491
▁idiot	-10.7493
mus	-10.7496
gon	-10.7498
cia	-10.7499
▁cops	-10.7499
▁leak	-10.7503
▁scratch	-10.7505
▁photograph	-10.7508
ram	-10.7509
▁fired	-10.751
▁false	-10.7511
▁engineer	-10.7511
▁(6	-10.7513
▁wealth	-10.7517
▁assistance	-10.752
▁distinct	-10.7522
▁poetry	-10.7522
eng	-10.7522
uck	-10.7526
ati	-10.7528
▁valuable	-10.7528
5,000	-10.7529
▁Common	-10.753
▁toxic	-10.7533
▁particles	-10.7537
▁dynamic	-10.754
▁needle	-10.754
▁sweat	-10.7543
ced	-10.7543
▁Smith	-10.7545
▁royal	-10.7546
oxy	-10.7549
▁Singapore	-10.7554
▁Very	-10.7555
▁Witnesses	-10.7555
▁yard	-10.7556
ash	-10.7557
▁inhibit	-10.7558
▁Thi	-10.7562
flu	-10.7563
▁incredible	-10.7563
▁recognition	-10.7563
▁Wear	-10.7563
▁physics	-10.7566
ware	-10.7571
▁Thus	-10.7578
▁ships	-10.7583
▁pitch	-10.7588
▁sal	-10.7589
▁Supreme	-10.7589
▁freak	-10.7589
▁Revolution	-10.759
▁rising	-10.759
ste	-10.7593
▁guest	-10.7594
▁attract	-10.7598
▁radiation	-10.7599
▁fold	-10.7599
▁update	-10.7599
cker	-10.76
MA	-10.7602
▁Wash	-10.7604
▁colour	-10.7607
▁participate	-10.7608
▁ruin	-10.7615
room	-10.7615
▁Tokyo	-10.7616
▁compliment	-10.7616
▁survival	-10.7616
89	-10.7623
some	-10.7624
▁Florida	-10.7625
bil	-10.7626
▁2019,	-10.7629
▁Administration	-10.7633
▁frequency	-10.7633
▁Times	-10.7635
▁Yet	-10.7636
cra	-10.764
▁physically	-10.7647
▁ears	-10.7648
▁reaching	-10.7649
▁suffered	-10.765
▁input	-10.7654
▁nuts	-10.7654
▁relevant	-10.766
▁Cape	-10.7663
▁su	-10.7664
▁tournament	-10.7669
inate	-10.767
▁peaceful	-10.7674
14	-10.7678
▁Until	-10.7678
▁risks	-10.768
▁terrorist	-10.7682
▁dirt	-10.7685
burg	-10.7688
▁Change	-10.769
▁movements	-10.7693
▁wondering	-10.7695
▁moisture	-10.7696
▁TED	-10.7697
▁Bob	-10.7705
▁Santa	-10.7711
▁fer	-10.7712
lie	-10.7713
▁committee	-10.7713
▁supplies	-10.7713
▁Post	-10.772
▁Little	-10.7722
▁Six	-10.7723
▁pump	-10.7723
▁Foundation	-10.7724
▁differently	-10.7725
▁marketed	-10.7725
▁te	-10.7732
▁permission	-10.7732
▁Plan	-10.7736
▁proteins	-10.7736
cycl	-10.7737
▁improved	-10.7737
▁gradually	-10.7743
▁recovery	-10.7743
▁bike	-10.7743
▁fu	-10.7747
75	-10.7749
▁cousin	-10.7749
▁belong	-10.775
66	-10.7753
▁prop	-10.7757
matic	-10.7759
▁Angeles	-10.7762
▁receiving	-10.7767
▁density	-10.7767
▁pepper	-10.7767
▁attached	-10.7769
ER	-10.777
▁gum	-10.777
▁factory	-10.7771
graph	-10.7772
ui	-10.7773
▁supplement	-10.7775
▁shampoo	-10.7776
▁Daniel	-10.7776
▁forgot	-10.7778
▁sink	-10.7784
▁uncle	-10.7787
▁Iraq	-10.7787
▁magnitude	-10.7794
▁occasion	-10.7795
▁pose	-10.7795
▁Cy	-10.7795
▁contest	-10.7797
78	-10.7802
▁pilot	-10.7803
▁Focus	-10.7803
▁Zi	-10.7804
▁gut	-10.7805
gest	-10.7808
▁Economic	-10.7812
▁revenue	-10.7812
▁visited	-10.7818
▁Er	-10.7818
nne	-10.7823
▁plot	-10.7823
▁obtain	-10.7825
▁experts	-10.783
▁Thailand	-10.7831
▁1979	-10.7831
▁mate	-10.7831
▁chances	-10.7831
▁cor	-10.7837
▁captain	-10.7839
▁reader	-10.784
▁attractive	-10.784
bre	-10.7843
▁gap	-10.7846
67	-10.7852
SA	-10.7858
box	-10.7858
nal	-10.7861
▁facial	-10.7866
▁acquired	-10.7867
▁holes	-10.7868
▁Texas	-10.7875
This	-10.7875
▁dump	-10.7877
dding	-10.7882
avi	-10.7884
pan	-10.7885
not	-10.7892
▁lips	-10.7893
▁outbreak	-10.7893
▁buddy	-10.7894
▁1975	-10.7894
▁brave	-10.7897
▁lung	-10.7899
▁depth	-10.7902
76	-10.7902
▁interaction	-10.7908
▁blocks	-10.791
▁declared	-10.7919
▁ver	-10.792
94	-10.7923
▁forth	-10.7924
▁Too	-10.7926
▁highlight	-10.7927
bert	-10.7938
▁Repeat	-10.7939
▁Due	-10.7942
▁Jean	-10.7944
▁Dia	-10.7948
▁latest	-10.7953
rie	-10.7955
▁sacrifice	-10.7957
▁Pen	-10.7958
▁1,000	-10.7961
▁involve	-10.7961
▁feeding	-10.7962
▁passing	-10.7963
▁researchers	-10.7968
ira	-10.7968
cro	-10.797
▁2008,	-10.7971
▁deeper	-10.7974
▁Emperor	-10.7975
▁alarm	-10.7977
ivity	-10.7981
▁toilet	-10.7981
fully	-10.7983
▁derivative	-10.7984
▁stood	-10.7994
▁criticism	-10.7994
▁Tro	-10.7998
▁liked	-10.7999
fra	-10.7999
▁extension	-10.8003
▁sufficient	-10.8003
▁electrical	-10.8003
▁Pick	-10.8003
ters	-10.8003
▁marked	-10.8005
▁reverse	-10.8007
▁shame	-10.801
▁matches	-10.8015
▁opposed	-10.8015
▁proceed	-10.8017
▁Bal	-10.8017
▁Main	-10.8019
▁seed	-10.8022
▁tooth	-10.8023
▁geo	-10.8023
▁fee	-10.8026
▁principle	-10.8027
▁Son	-10.8029
▁publication	-10.8038
▁expand	-10.804
01	-10.804
▁jo	-10.804
▁Ham	-10.8047
▁ethnic	-10.8048
▁Vice	-10.8051
mann	-10.8053
vel	-10.8054
▁charges	-10.8056
▁shopping	-10.8059
▁sunlight	-10.8059
▁offers	-10.8061
▁cheap	-10.8066
▁exists	-10.8067
▁pants	-10.8067
▁1983	-10.8068
▁deposit	-10.8073
lay	-10.8075
▁swimming	-10.8076
▁dialect	-10.8076
▁Help	-10.8077
mmer	-10.8077
▁Hot	-10.8077
ches	-10.8086
▁Sand	-10.8091
▁technical	-10.8092
▁lungs	-10.8092
ency	-10.8093
▁temperatures	-10.8093
▁behaviors	-10.8095
▁excessive	-10.8097
▁receptors	-10.8097
▁pills	-10.8097
▁aside	-10.8098
▁rep	-10.81
▁Ray	-10.8101
book	-10.8103
▁acknowledge	-10.8104
▁dedicated	-10.8107
▁somehow	-10.8112
▁barrier	-10.8113
▁carrier	-10.8113
▁copies	-10.8115
▁tie	-10.8119
▁elections	-10.8122
▁exciting	-10.8122
▁regret	-10.8122
▁recipe	-10.8122
▁transferred	-10.8124
▁keeps	-10.8126
▁battery	-10.8126
▁returning	-10.8127
▁math	-10.8128
▁Moscow	-10.8132
▁minimum	-10.8132
▁infant	-10.8133
▁z	-10.8133
▁panic	-10.8139
▁tons	-10.8141
▁enzyme	-10.8141
▁Navy	-10.8142
win	-10.8146
▁convert	-10.8147
▁bleach	-10.815
▁Everybody	-10.8151
ali	-10.8157
▁ASEAN	-10.816
▁Parliament	-10.816
▁Depend	-10.816
▁excellent	-10.8169
▁skip	-10.8169
▁doors	-10.817
▁vet	-10.817
▁hill	-10.817
▁regarding	-10.8171
▁PC	-10.8172
▁installed	-10.8176
▁mail	-10.8178
rom	-10.8178
▁intellectual	-10.8178
▁steel	-10.8178
▁slice	-10.818
24	-10.8183
zer	-10.8186
▁removing	-10.8188
▁poison	-10.819
▁rash	-10.8193
▁founder	-10.8195
▁Ur	-10.8195
▁Rock	-10.8202
▁detect	-10.8202
▁soup	-10.8203
▁seeking	-10.8203
▁difficulty	-10.8204
▁diagnosis	-10.8206
lla	-10.8207
mun	-10.8208
log	-10.8212
cher	-10.8213
▁organ	-10.8213
▁48	-10.8215
▁dancing	-10.8216
▁attacked	-10.8221
▁Global	-10.8225
rick	-10.8225
▁arrive	-10.8227
▁independence	-10.8228
▁witness	-10.8233
▁artificial	-10.8234
▁agency	-10.8235
stone	-10.8235
▁Joseph	-10.8236
▁1984	-10.8236
▁alter	-10.8238
▁shelter	-10.8244
▁exam	-10.8245
she	-10.8249
▁Ok	-10.8251
▁soak	-10.8255
▁performing	-10.8259
▁audio	-10.8261
▁Louis	-10.8266
▁Anna	-10.8266
which	-10.8274
▁Israel	-10.8279
▁moves	-10.8282
▁Governorate	-10.8283
▁meta	-10.8283
▁sudden	-10.8288
▁victory	-10.8291
▁Therefore	-10.8293
▁electricity	-10.8294
▁divide	-10.8294
olo	-10.8295
▁borrow	-10.8301
▁Chris	-10.8305
▁slip	-10.8312
▁Unless	-10.8312
lib	-10.8316
iya	-10.8317
▁beer	-10.8318
▁innocent	-10.8319
▁1982	-10.832
▁gods	-10.8321
nel	-10.8323
▁Ban	-10.8325
▁gel	-10.833
hn	-10.834
▁Night	-10.8342
77	-10.8342
lock	-10.8345
▁Friday	-10.8348
▁estate	-10.8349
▁Age	-10.8349
▁Nice	-10.8352
gged	-10.8352
▁seal	-10.8354
vor	-10.8354
84	-10.8358
pin	-10.8361
▁civilian	-10.8366
▁charged	-10.8366
▁Entertainment	-10.8367
▁temporary	-10.8367
▁injured	-10.8367
▁Business	-10.8367
▁hired	-10.8367
▁chocolate	-10.8386
▁tick	-10.8387
▁Qu	-10.8392
▁differ	-10.8394
▁knee	-10.8396
▁sets	-10.8398
lim	-10.8399
▁Dam	-10.8407
▁generate	-10.8408
▁evolution	-10.8413
▁essay	-10.8414
▁joy	-10.8419
▁Count	-10.842
▁prisoners	-10.8426
ona	-10.8427
▁Without	-10.8428
▁Pla	-10.8432
▁nutrients	-10.8434
▁tear	-10.8439
16	-10.844
18	-10.844
hor	-10.8441
▁laptop	-10.8443
▁Matt	-10.8446
▁captured	-10.8452
▁mutual	-10.8453
▁leaf	-10.8453
▁temple	-10.8457
06	-10.8459
een	-10.8464
▁cho	-10.8465
▁belief	-10.8472
▁faces	-10.8474
▁strengthen	-10.8481
oon	-10.8481
22	-10.8483
▁bu	-10.8486
fen	-10.8488
▁rough	-10.8488
▁Ghana	-10.849
▁commander	-10.8494
▁et	-10.8499
▁figures	-10.85
▁Sw	-10.85
▁Hand	-10.8501
▁windows	-10.8501
▁assistant	-10.8503
▁Ter	-10.8507
cla	-10.851
▁Charlie	-10.8511
▁wax	-10.8513
▁decline	-10.8515
▁ال	-10.852
PD	-10.8526
▁essentially	-10.8529
▁description	-10.853
▁judgment	-10.853
▁principal	-10.853
▁opposition	-10.853
▁radical	-10.853
13	-10.8533
▁shake	-10.8534
▁Tar	-10.8535
▁sheet	-10.8535
▁printing	-10.8539
▁ghost	-10.8539
▁Del	-10.854
▁oldest	-10.8543
thy	-10.8546
▁roles	-10.8548
▁violent	-10.855
▁Southeast	-10.8551
92	-10.8553
▁Force	-10.8553
put	-10.8557
▁output	-10.8557
pel	-10.8559
load	-10.8563
▁ion	-10.8564
hen	-10.8567
▁incredibly	-10.8568
▁Besides	-10.8569
▁transform	-10.8571
▁urge	-10.8575
45	-10.858
▁Berlin	-10.858
▁ignore	-10.8582
ians	-10.8582
▁vomiting	-10.8587
▁facility	-10.8588
87	-10.8589
▁ladies	-10.8589
▁Championships	-10.8593
▁views	-10.8596
▁innovation	-10.8598
▁underlying	-10.8598
▁Australian	-10.8604
ico	-10.8614
▁principles	-10.862
sch	-10.8623
point	-10.8624
▁produces	-10.8624
▁spots	-10.8626
▁Northern	-10.8627
▁cultures	-10.8627
▁supplements	-10.8628
▁fiction	-10.8629
08	-10.863
bie	-10.8633
oy	-10.8637
▁humanity	-10.8637
▁Among	-10.8639
▁habits	-10.8639
▁forming	-10.8639
93	-10.8645
▁poverty	-10.8646
▁fairly	-10.865
▁antibiotic	-10.8652
ora	-10.8652
▁consumer	-10.8655
▁bastard	-10.8656
▁Zo	-10.8659
▁150	-10.8667
▁Cuban	-10.8669
▁regard	-10.8671
nor	-10.8675
gger	-10.8676
▁Whether	-10.8676
▁ski	-10.8683
▁flood	-10.8684
odo	-10.8684
▁2007,	-10.8686
▁Mat	-10.8686
▁feedback	-10.8686
▁represents	-10.8687
▁invite	-10.869
▁entering	-10.8693
▁Sit	-10.8695
▁ordinary	-10.8695
aging	-10.8702
▁prompt	-10.8702
ising	-10.8707
La	-10.8711
35	-10.8712
▁interrupt	-10.8715
▁Hama	-10.8719
gie	-10.8723
▁FDA	-10.873
▁centre	-10.8731
▁uniform	-10.8735
▁Mont	-10.8735
▁Islands	-10.8735
▁focusing	-10.8739
▁Allow	-10.8741
▁Shin	-10.8742
▁jar	-10.8744
▁conclusion	-10.8745
▁bedroom	-10.8746
▁membrane	-10.8749
▁drawn	-10.8752
▁cage	-10.8753
▁sisters	-10.8754
▁Jehovah	-10.8755
▁finance	-10.8755
▁arts	-10.876
28	-10.876
▁measured	-10.8762
▁cute	-10.8763
▁presentation	-10.8769
verse	-10.8769
▁everyday	-10.877
%	-10.8771
▁assault	-10.8775
▁Drink	-10.8775
▁2006,	-10.8778
If	-10.8781
▁acute	-10.8785
▁naked	-10.8785
▁prescribed	-10.8785
▁supporting	-10.8788
▁brings	-10.8789
95	-10.8792
▁stands	-10.8792
▁psychological	-10.8794
rant	-10.8801
AR	-10.8802
rol	-10.8803
▁explanation	-10.8804
▁Dutch	-10.8804
▁compete	-10.8805
▁gym	-10.8805
▁Democratic	-10.8807
tis	-10.8808
▁Five	-10.8808
▁Cur	-10.8813
▁limits	-10.8814
▁humor	-10.8817
▁Kan	-10.8818
▁stayed	-10.8818
▁qua	-10.8823
▁crying	-10.8824
▁Unlike	-10.8825
▁Anyway	-10.8826
▁Live	-10.8827
▁somewhat	-10.8827
▁expert	-10.8834
▁classified	-10.8837
▁frozen	-10.8844
▁houses	-10.8844
▁ticket	-10.8846
▁articles	-10.8847
▁kitten	-10.8847
▁approval	-10.8854
▁Lake	-10.8855
▁branches	-10.8856
meter	-10.8857
▁screw	-10.8861
down	-10.8862
79	-10.8865
mine	-10.8866
▁Castle	-10.8867
mber	-10.8869
▁exception	-10.8869
aba	-10.8875
▁Space	-10.8876
▁USB	-10.8878
▁tract	-10.888
▁belt	-10.8882
ae	-10.8882
▁murdered	-10.8883
▁papers	-10.8889
▁Ag	-10.889
91	-10.8891
▁cleaner	-10.8892
▁kilometers	-10.8897
▁activists	-10.8898
CA	-10.8902
▁psycho	-10.8902
▁dollar	-10.8907
▁eliminate	-10.8908
hin	-10.891
▁hunt	-10.8913
▁weigh	-10.8913
▁classic	-10.8924
▁philosophy	-10.8924
▁Civil	-10.8924
▁clip	-10.8926
▁Create	-10.8927
▁Mix	-10.8927
▁Win	-10.8928
▁checked	-10.8929
▁processing	-10.8931
▁Hy	-10.8932
▁allergic	-10.8934
▁frequent	-10.8939
▁personally	-10.8945
rac	-10.8947
▁conscious	-10.8952
rat	-10.8955
gram	-10.8958
▁sake	-10.8959
▁spin	-10.8964
▁discharge	-10.8964
▁twenty	-10.8964
▁guitar	-10.8964
▁Cuba	-10.8965
▁corruption	-10.8972
▁accurate	-10.8973
▁Enter	-10.8979
▁Mil	-10.8982
▁kg	-10.8986
97	-10.8987
▁Championship	-10.8989
▁whereas	-10.899
▁panel	-10.8992
▁burned	-10.8992
tha	-10.8992
▁Hor	-10.8992
▁robot	-10.8993
▁potassium	-10.8995
▁vulnerable	-10.8995
▁succeed	-10.9002
▁farmers	-10.9014
CE	-10.9014
▁rely	-10.9015
▁1976	-10.9016
▁Va	-10.9017
ators	-10.9019
elle	-10.902
▁dig	-10.9021
▁driven	-10.9021
▁climb	-10.9024
▁concrete	-10.9025
▁enemies	-10.9025
▁Ocean	-10.9025
▁Team	-10.9026
lam	-10.9026
▁mouse	-10.9026
▁trauma	-10.9034
▁snake	-10.9035
▁Indonesia	-10.9035
▁Obama	-10.9035
▁grant	-10.9038
▁Iran	-10.904
▁mat	-10.9043
▁colleagues	-10.9045
▁Scott	-10.9047
wer	-10.9049
EC	-10.9051
▁interactions	-10.9053
▁encounter	-10.9054
▁Clean	-10.9057
▁outer	-10.906
▁consistent	-10.9064
▁Blue	-10.9065
▁fulfill	-10.9066
▁universal	-10.9066
▁tra	-10.9066
▁Run	-10.9071
▁graduate	-10.9072
▁faced	-10.9074
atory	-10.9075
▁Line	-10.9082
▁comm	-10.9084
▁outdoor	-10.9086
▁Organization	-10.9087
▁Rub	-10.9087
▁moments	-10.9091
blo	-10.9092
▁oils	-10.9096
▁binding	-10.9097
▁interface	-10.9097
▁kingdom	-10.9097
▁fur	-10.9101
see	-10.9101
▁lifestyle	-10.9107
▁bones	-10.9109
rb	-10.911
iti	-10.9111
▁Sy	-10.9113
cr	-10.9115
▁extent	-10.9117
▁Brazilian	-10.912
hel	-10.9122
RI	-10.9122
▁knock	-10.9125
▁Finally	-10.9127
▁Looks	-10.9127
▁festival	-10.9127
▁preparation	-10.9127
▁spiritual	-10.9128
▁36	-10.9133
▁keys	-10.9136
▁clinic	-10.9138
▁apps	-10.914
▁swim	-10.9147
▁session	-10.9148
▁Minh	-10.9149
▁horses	-10.9149
RA	-10.9155
ural	-10.9158
▁pandemic	-10.9158
▁connections	-10.9163
▁confused	-10.9164
amide	-10.9168
▁Claire	-10.9168
▁punch	-10.9168
▁emotion	-10.9169
▁heads	-10.917
▁arrangement	-10.9172
most	-10.9177
▁landscape	-10.9179
▁passage	-10.9183
▁apologize	-10.9189
▁Brown	-10.919
ogen	-10.9193
ison	-10.9193
▁Agent	-10.9193
▁electron	-10.9198
▁Francis	-10.9198
▁athlete	-10.9199
26	-10.9202
▁nails	-10.9204
▁mile	-10.921
▁blend	-10.9211
▁tourist	-10.9211
▁Francisco	-10.9211
▁alien	-10.9214
▁Gri	-10.9214
▁goddamn	-10.922
):	-10.922
09	-10.922
▁barely	-10.9226
tens	-10.9238
▁Want	-10.9239
wing	-10.924
cio	-10.924
▁domain	-10.924
án	-10.924
▁musician	-10.9246
▁involving	-10.9251
▁palace	-10.9252
nan	-10.9254
▁possess	-10.9257
▁Cross	-10.9258
▁stake	-10.9259
▁rival	-10.9262
oe	-10.9265
▁wa	-10.9266
▁Move	-10.9267
▁hip	-10.9268
take	-10.927
▁Wo	-10.9272
▁attorney	-10.9272
chy	-10.9276
▁Sen	-10.9276
▁spell	-10.9282
▁bubble	-10.9282
▁wing	-10.9284
pol	-10.9285
▁keyboard	-10.9285
▁bind	-10.9286
▁raw	-10.9287
▁layers	-10.9287
▁Hello	-10.9291
▁Between	-10.9293
▁Imagine	-10.9293
▁abandoned	-10.9297
▁dependent	-10.9302
27	-10.9303
▁surrounded	-10.9303
▁liberal	-10.9303
▁Additionally	-10.9306
▁quote	-10.9315
73	-10.9319
ili	-10.932
▁disk	-10.9324
▁dare	-10.9324
▁yield	-10.9324
▁molecules	-10.9328
▁Jupiter	-10.9335
▁stimulate	-10.9335
▁goods	-10.9337
▁thoroughly	-10.9339
ech	-10.934
85	-10.9341
▁fate	-10.935
▁chi	-10.935
▁watched	-10.9354
▁Fire	-10.9354
▁consume	-10.9356
▁stability	-10.9357
▁union	-10.9358
bat	-10.9366
▁odor	-10.9366
ain	-10.9366
▁Project	-10.9367
▁Head	-10.9368
▁wise	-10.9372
▁Ste	-10.9373
▁recall	-10.9374
▁grain	-10.9374
▁Ol	-10.9376
PR	-10.9376
▁Web	-10.9377
inflammatory	-10.9377
▁fewer	-10.9384
▁Several	-10.9387
▁exit	-10.9389
▁makeup	-10.9392
▁overcome	-10.9393
▁col	-10.9396
▁apparent	-10.9396
▁Trump	-10.9398
▁1930	-10.94
▁refuse	-10.9404
▁Chicago	-10.9408
▁hug	-10.9408
bon	-10.9409
▁fed	-10.9411
▁Drug	-10.9412
▁pages	-10.9413
Ma	-10.9418
▁thumb	-10.9419
▁characteristics	-10.942
▁angel	-10.9421
▁craft	-10.9421
yu	-10.9431
▁trail	-10.9431
▁Daddy	-10.9431
69	-10.9437
▁1940	-10.9442
idine	-10.9446
▁associate	-10.9446
▁locations	-10.9447
▁delivery	-10.945
▁mold	-10.945
ique	-10.9453
▁subjects	-10.9454
▁fo	-10.9456
21	-10.9461
ame	-10.9465
▁retain	-10.9465
ink	-10.9468
▁traveling	-10.9469
▁deputy	-10.9472
▁covering	-10.9474
05	-10.9484
▁tribe	-10.9485
▁enhance	-10.9489
ika	-10.9494
▁gay	-10.9495
▁Camp	-10.9495
▁Constitution	-10.9497
une	-10.9498
▁exhibition	-10.9501
▁glasses	-10.9503
▁neutral	-10.9507
32	-10.951
NA	-10.9513
hood	-10.9514
▁spectrum	-10.9514
▁olive	-10.9515
65	-10.9516
▁bacterial	-10.9517
ologist	-10.9517
▁funds	-10.9518
▁Ye	-10.9522
Polish	-10.9524
▁heaven	-10.9525
▁boundaries	-10.9525
▁witch	-10.9525
eh	-10.9529
74	-10.953
▁influenced	-10.9534
▁coordinate	-10.9536
▁facilities	-10.9536
▁Jackson	-10.9539
▁Inc	-10.954
▁refused	-10.954
▁purposes	-10.9541
kan	-10.9541
▁phenomenon	-10.9546
▁proposal	-10.9546
▁resist	-10.9546
▁pillow	-10.9547
▁Stra	-10.9553
▁64	-10.9554
▁Rachel	-10.9557
▁Practice	-10.956
▁tech	-10.9566
▁Argentina	-10.9568
▁pipe	-10.957
rz	-10.957
▁channels	-10.9576
uda	-10.9578
▁earthquake	-10.9578
play	-10.9586
▁laid	-10.9586
zar	-10.9587
▁discipline	-10.9589
▁recruit	-10.9589
▁dates	-10.959
▁protecting	-10.9591
ich	-10.9599
▁holiday	-10.96
83	-10.96
63	-10.9601
tract	-10.9603
▁Venezuela	-10.9604
▁assets	-10.9607
▁Kenya	-10.9609
▁Gr	-10.961
▁priest	-10.9611
▁scent	-10.9616
▁undergo	-10.9618
old	-10.9619
▁Store	-10.962
▁circuit	-10.9622
▁sensation	-10.9622
▁draft	-10.9622
▁Arabic	-10.9622
23	-10.9624
▁lifetime	-10.9625
▁convince	-10.9628
▁epi	-10.963
▁Pakistan	-10.9632
▁default	-10.9632
▁Jane	-10.9635
▁boil	-10.9637
▁drag	-10.9639
▁Square	-10.9643
▁Mas	-10.9643
▁Media	-10.965
▁signals	-10.9651
▁Corporation	-10.9654
▁Front	-10.9654
▁adverse	-10.9654
▁inform	-10.9659
▁Tre	-10.9664
▁underneath	-10.9665
▁plug	-10.9665
▁doses	-10.9669
▁harvest	-10.9676
▁Edward	-10.9676
ford	-10.9681
direct	-10.9682
▁practices	-10.9684
▁Affairs	-10.9686
▁competitive	-10.9686
▁heavily	-10.9686
▁explained	-10.969
omi	-10.9692
▁soldier	-10.9692
▁guarantee	-10.9693
▁1978	-10.9699
▁ceremony	-10.9708
▁diameter	-10.9708
hal	-10.9711
▁scientist	-10.9712
▁Way	-10.9714
ggle	-10.9714
▁delivered	-10.9719
▁Canadian	-10.9719
▁mathematics	-10.9719
▁vehicles	-10.9721
▁den	-10.9723
code	-10.9724
▁composition	-10.973
▁classical	-10.9733
▁prompted	-10.9734
yan	-10.9738
▁Juan	-10.9739
▁banks	-10.974
▁opponent	-10.9741
▁Federal	-10.9741
▁beneath	-10.9741
▁Battle	-10.9741
▁gather	-10.9741
▁expectations	-10.9742
▁vital	-10.9743
nica	-10.9744
aga	-10.9746
71	-10.9746
▁stole	-10.9748
▁dancer	-10.9748
▁telescope	-10.9752
▁spouse	-10.9752
▁1981	-10.9753
fil	-10.9756
▁organize	-10.976
▁cave	-10.9761
▁agencies	-10.9763
▁descend	-10.9763
▁expansion	-10.9763
▁Football	-10.9763
04	-10.9764
▁Real	-10.9771
▁Stand	-10.9777
▁isolated	-10.9793
ES	-10.9795
cie	-10.9795
▁Caribbean	-10.9796
▁Albert	-10.9798
▁mountains	-10.9801
▁pulling	-10.9803
48	-10.9803
▁Bri	-10.9814
▁María	-10.9818
▁lesson	-10.9825
mbo	-10.9826
▁separated	-10.9828
▁CEO	-10.9829
▁deaths	-10.9833
▁USA	-10.9835
▁cre	-10.9838
▁minimize	-10.984
▁statements	-10.984
▁desired	-10.9841
▁Uganda	-10.9844
mail	-10.9848
▁practical	-10.985
▁Cap	-10.9857
▁Ze	-10.9858
vol	-10.9861
▁diarrhea	-10.9862
▁speakers	-10.9864
▁tub	-10.9866
aki	-10.9867
dom	-10.9867
▁exhibit	-10.9872
▁headache	-10.9873
▁laser	-10.9876
▁defeated	-10.9877
▁Pop	-10.9877
▁suppress	-10.9881
▁youth	-10.9881
bla	-10.9882
▁grandfather	-10.9884
▁rarely	-10.9887
▁patch	-10.9891
gent	-10.9892
▁10,000	-10.9894
▁Twitter	-10.9895
▁literary	-10.9896
BS	-10.9899
nik	-10.9899
ua	-10.9899
dies	-10.99
eon	-10.9903
▁variable	-10.9905
50,000	-10.9906
dar	-10.9906
rated	-10.991
▁OS	-10.991
▁architect	-10.9916
ila	-10.9917
▁index	-10.9919
och	-10.992
▁tied	-10.9921
▁Victoria	-10.9926
▁abroad	-10.9928
cut	-10.9933
▁Ali	-10.9933
▁introduction	-10.995
▁twin	-10.9951
▁75	-10.9961
owo	-10.9961
▁Ven	-10.9962
▁End	-10.9965
▁accused	-10.9967
▁infrastructure	-10.9973
▁Kraków	-10.9973
▁beliefs	-10.9973
▁bump	-10.9975
▁touching	-10.998
▁wage	-10.9981
▁societies	-10.9984
▁Things	-10.9986
▁rating	-10.9986
How	-10.9986
▁Luc	-10.9993
▁$2	-10.9993
▁alert	-10.9995
▁swallow	-10.9995
▁Linux	-10.9995
▁selection	-10.9996
▁tele	-10.9996
▁Kid	-10.9996
oph	-10.9997
▁vein	-10.9997
aving	-10.9998
▁percentage	-11.0005
▁survived	-11.0006
▁Number	-11.0007
▁serves	-11.0008
▁shade	-11.0008
▁shy	-11.0008
2)	-11.0016
▁funeral	-11.0017
64	-11.0019
elli	-11.0019
ache	-11.0019
▁titles	-11.0019
▁falls	-11.0021
▁strongly	-11.0021
mel	-11.0026
▁Sco	-11.0027
▁settle	-11.0027
▁Afghanistan	-11.0029
▁tag	-11.0032
▁resource	-11.0032
▁democratic	-11.0035
eo	-11.0035
gio	-11.0037
▁advocate	-11.004
▁Nick	-11.004
▁1973	-11.0041
▁Ber	-11.0041
arian	-11.0048
▁cups	-11.0049
rma	-11.005
▁efficient	-11.005
▁grandmother	-11.0051
▁transplant	-11.0051
▁database	-11.0052
▁pink	-11.0052
▁gear	-11.0054
▁dragon	-11.0056
ographic	-11.0057
rr	-11.0058
▁installation	-11.006
▁Colonel	-11.0062
▁perception	-11.0062
▁intention	-11.0064
▁belongs	-11.0065
▁neighbors	-11.0065
ility	-11.0068
phi	-11.0069
▁cha	-11.0069
counter	-11.0069
▁brains	-11.007
▁parallel	-11.0074
▁dishes	-11.0076
▁purchased	-11.0078
▁lovely	-11.0081
▁tablespoon	-11.0085
pho	-11.0087
▁grains	-11.0088
▁requirements	-11.0091
▁celebrate	-11.0093
▁blog	-11.0096
▁Thu	-11.0096
▁myth	-11.0097
▁settled	-11.0099
▁meetings	-11.0103
ule	-11.0107
▁Zealand	-11.0108
▁monkey	-11.0108
▁Egyptian	-11.0111
▁printed	-11.0112
▁episodes	-11.0112
▁administered	-11.0119
rian	-11.0123
▁Kra	-11.0127
▁DS	-11.0132
dan	-11.0134
▁awful	-11.0136
ude	-11.0138
▁shoulders	-11.0138
▁algorithm	-11.0139
▁extraordinary	-11.0142
▁contained	-11.0142
▁casual	-11.0142
▁Monday	-11.0142
▁Convention	-11.0153
rge	-11.0164
▁Early	-11.0168
▁Cla	-11.0172
ked	-11.0174
▁arch	-11.0175
▁ought	-11.0177
▁1974	-11.0177
▁Rose	-11.0177
▁ruled	-11.0181
ddle	-11.019
▁fears	-11.0192
▁Welcome	-11.0198
TC	-11.0199
▁compare	-11.0207
DA	-11.0208
▁intervention	-11.021
▁reputation	-11.021
▁assigned	-11.021
▁acne	-11.0211
▁loop	-11.0213
▁resulted	-11.0214
var	-11.0219
run	-11.0219
▁creates	-11.0219
▁drill	-11.0221
▁covers	-11.0222
▁punishment	-11.0223
▁networks	-11.0224
▁mayor	-11.0228
Be	-11.0234
▁hunting	-11.0238
▁folks	-11.0238
▁dressed	-11.0238
ń	-11.0242
▁Again	-11.0242
▁virtual	-11.0244
▁cigarette	-11.0244
chen	-11.0245
▁History	-11.0245
▁dude	-11.0251
OR	-11.0253
▁meditation	-11.0256
▁radius	-11.0256
▁eaten	-11.0257
▁clients	-11.0259
88	-11.0265
▁destruction	-11.0267
▁vertical	-11.0268
▁1972	-11.0268
▁Valley	-11.0269
▁replacement	-11.0273
ito	-11.0275
▁(7	-11.0277
▁combine	-11.0278
▁DVD	-11.0279
▁stages	-11.028
▁march	-11.0283
▁employee	-11.0288
▁mal	-11.029
position	-11.0292
68	-11.0292
US	-11.0293
▁tan	-11.0297
▁occasionally	-11.0297
▁rocks	-11.0297
▁Sarah	-11.03
phy	-11.0303
▁lit	-11.0307
▁provider	-11.031
▁Ob	-11.0318
▁presidential	-11.0318
▁marks	-11.0318
▁picking	-11.032
▁outcome	-11.0324
▁Den	-11.0324
▁wrist	-11.0326
▁palm	-11.033
▁delete	-11.0331
▁expanded	-11.0331
▁phen	-11.0332
▁titled	-11.0333
▁bloody	-11.0334
▁dumb	-11.0335
▁Marie	-11.0336
▁1/2	-11.0337
▁stressed	-11.0338
37	-11.0339
▁cameras	-11.0341
▁Sign	-11.0342
▁islands	-11.0342
▁colored	-11.0343
SE	-11.0344
▁Technology	-11.036
▁respiratory	-11.036
▁Network	-11.036
igh	-11.0361
pper	-11.0364
ister	-11.0367
98	-11.0369
▁Hell	-11.0371
air	-11.0372
▁Command	-11.0378
star	-11.0381
82	-11.0382
▁garlic	-11.0383
▁litter	-11.0385
▁confront	-11.0391
▁newly	-11.0391
itz	-11.0392
▁beans	-11.0393
fall	-11.0394
▁Saturday	-11.0395
▁improving	-11.0395
▁anxious	-11.0395
▁1939	-11.0396
▁Peru	-11.0397
▁flip	-11.0398
38	-11.04
02	-11.0401
tum	-11.0404
▁fund	-11.0406
▁invented	-11.0407
▁bull	-11.0415
▁tablet	-11.0415
▁Wal	-11.0416
55	-11.0417
▁pollution	-11.0418
▁estrogen	-11.0418
▁Hang	-11.042
osa	-11.0424
▁Sil	-11.0424
▁Ky	-11.0424
ici	-11.0424
▁sought	-11.043
▁Sky	-11.0434
▁awareness	-11.0436
▁instrument	-11.0436
dian	-11.0438
▁surveillance	-11.0441
▁dried	-11.0442
▁Senate	-11.0445
Oh	-11.0445
Well	-11.0446
▁comparison	-11.0453
▁injuries	-11.0453
▁harsh	-11.0453
▁begun	-11.0459
▁Justice	-11.0459
▁Lin	-11.0459
AL	-11.046
▁synthetic	-11.0462
▁boxes	-11.0462
▁antagonist	-11.0465
▁Rio	-11.0465
▁nasal	-11.0465
▁Somebody	-11.0466
▁patent	-11.0466
▁consciousness	-11.0467
▁rational	-11.0467
▁employer	-11.0468
part	-11.0472
▁fans	-11.0472
▁compounds	-11.0475
trus	-11.0475
▁corporation	-11.0476
▁Cro	-11.0485
▁protests	-11.0485
▁organisms	-11.0486
▁plasma	-11.0488
▁oven	-11.049
▁Care	-11.0492
81	-11.0494
▁Char	-11.0495
▁contemporary	-11.05
▁fraction	-11.05
▁absence	-11.05
▁digit	-11.0508
▁residents	-11.0516
39	-11.0519
▁Fla	-11.0521
▁pig	-11.0524
▁Dragon	-11.0526
▁cancel	-11.0529
town	-11.0533
▁follows	-11.0535
▁notable	-11.0535
▁subsequent	-11.0535
▁Arthur	-11.0536
▁Member	-11.0537
▁dec	-11.0543
▁Kur	-11.0547
▁bust	-11.0548
▁1944	-11.0548
eta	-11.0552
ject	-11.0552
▁grateful	-11.0559
▁ties	-11.0563
▁Joey	-11.0565
▁corporate	-11.0571
▁enormous	-11.0571
▁motivation	-11.0571
▁silence	-11.0571
▁Anything	-11.0571
▁1977	-11.0572
▁Malaysia	-11.0576
▁compress	-11.0576
▁breaks	-11.0579
▁electro	-11.0583
▁forgotten	-11.0583
▁missile	-11.0585
more	-11.0592
mia	-11.0593
▁initiative	-11.0595
03	-11.0595
▁IV	-11.0596
▁hack	-11.06
To	-11.0601
▁Cast	-11.0604
▁restore	-11.0606
▁proportion	-11.0606
▁evolved	-11.0607
▁pushing	-11.061
▁threatened	-11.061
▁1920	-11.0611
long	-11.0611
oni	-11.0614
▁implement	-11.0615
▁collected	-11.0617
▁greatly	-11.0618
▁circulation	-11.0618
▁Medical	-11.0623
maker	-11.0624
▁consumers	-11.0626
▁distributed	-11.0629
▁institution	-11.063
▁gmina	-11.0631
29	-11.0631
mma	-11.0632
▁rejected	-11.0634
▁closing	-11.0642
▁placing	-11.0643
▁desktop	-11.0643
▁hey	-11.0643
▁checking	-11.0643
▁Rob	-11.0648
▁Imperial	-11.0654
▁removal	-11.0654
▁substantial	-11.0654
cap	-11.0655
▁insert	-11.0658
▁bags	-11.0663
▁Netherlands	-11.0666
▁continuing	-11.0666
▁scenario	-11.0666
▁velocity	-11.0666
▁jealous	-11.0667
▁Sel	-11.0667
▁valid	-11.0667
▁peel	-11.067
▁breed	-11.0671
▁adopt	-11.0676
▁collaboration	-11.0678
▁Hai	-11.068
▁cooked	-11.0683
▁Fr	-11.0684
▁shortly	-11.0692
▁acids	-11.0694
ava	-11.0695
▁spreading	-11.0699
▁2005,	-11.0699
▁Years	-11.0701
▁tunnel	-11.0702
▁invest	-11.0702
▁abilities	-11.0704
▁Nik	-11.0705
itch	-11.0707
▁stored	-11.0711
▁toys	-11.0714
gun	-11.0715
▁lord	-11.0716
▁conversations	-11.0718
BA	-11.0719
▁commit	-11.0721
mination	-11.0727
▁Jimmy	-11.0727
▁popularity	-11.0728
▁Ry	-11.0729
▁tracks	-11.0729
&	-11.0732
▁Ever	-11.0732
▁theatre	-11.0734
▁attempts	-11.0743
▁trash	-11.0746
▁Word	-11.0748
▁Est	-11.0748
▁diplomatic	-11.0749
▁tar	-11.075
▁maritime	-11.075
▁Jews	-11.075
▁syn	-11.0753
ID	-11.0755
gging	-11.0755
3%	-11.0758
▁Trade	-11.0758
▁courts	-11.0763
▁adapt	-11.0766
ounce	-11.0769
plo	-11.0773
▁twist	-11.0774
▁amino	-11.0775
▁impression	-11.0777
cc	-11.0778
▁programme	-11.0781
▁entrepreneur	-11.0783
▁maintaining	-11.0785
▁opera	-11.0786
▁Bat	-11.0786
▁Steve	-11.0786
▁crucial	-11.0787
▁quarantine	-11.0787
bble	-11.0787
▁rot	-11.0791
▁pit	-11.0791
▁controlling	-11.0793
▁2017.	-11.0797
▁34	-11.0798
▁Journal	-11.0799
▁blister	-11.0799
aya	-11.08
▁admitted	-11.0801
ele	-11.0806
▁faint	-11.081
▁ce	-11.081
▁ruling	-11.0811
▁cow	-11.0814
▁comb	-11.0819
▁compassion	-11.0822
bed	-11.0822
▁vacation	-11.0823
▁Hol	-11.0826
Mo	-11.0828
▁delay	-11.083
▁Fine	-11.0832
▁assess	-11.0833
▁ritual	-11.0835
▁secretary	-11.0841
▁def	-11.0844
▁spare	-11.0846
▁representing	-11.0847
▁knees	-11.0847
▁scrub	-11.0847
▁Third	-11.0848
▁solo	-11.0856
▁banana	-11.086
▁Bell	-11.0861
▁drum	-11.0861
ote	-11.0863
▁affects	-11.0863
▁65	-11.0864
▁Unfortunately	-11.0872
▁irritation	-11.0872
▁gravity	-11.0873
▁samples	-11.0874
▁rein	-11.0876
▁examine	-11.0877
▁council	-11.0884
▁furniture	-11.0884
▁kidding	-11.0884
lies	-11.0884
fec	-11.0885
uni	-11.0891
▁Bor	-11.0894
ل	-11.0896
▁privilege	-11.0896
▁Blo	-11.0897
▁ants	-11.09
33	-11.0904
▁cu	-11.0905
▁prescribe	-11.0909
rib	-11.0912
▁Sur	-11.0914
▁resistant	-11.0922
▁topical	-11.0928
▁attracted	-11.0928
▁provision	-11.0933
▁ID	-11.0943
▁Nigerian	-11.0945
▁crap	-11.0957
▁vacuum	-11.0958
▁sail	-11.0959
▁raising	-11.0959
▁Had	-11.0959
owski	-11.0963
▁genes	-11.0963
▁odd	-11.0963
iving	-11.0965
▁2016.	-11.0968
lated	-11.0968
▁demonstrate	-11.0969
how	-11.0972
▁arrow	-11.0972
lysis	-11.0974
▁phones	-11.0979
▁funding	-11.0979
▁Military	-11.0982
▁discomfort	-11.0982
▁enterprise	-11.0982
▁entrance	-11.0982
▁chapter	-11.0983
▁colon	-11.0989
▁resolve	-11.0994
▁sections	-11.0994
▁Management	-11.0995
▁desperate	-11.0995
▁hurry	-11.0995
▁addiction	-11.0998
▁ranked	-11.0998
▁overnight	-11.0999
▁arise	-11.1
▁Ren	-11.1
ched	-11.1003
▁Die	-11.1005
▁occupied	-11.1007
▁servant	-11.1007
▁import	-11.1008
▁chemistry	-11.1008
▁collapse	-11.1019
▁Mexican	-11.1019
31	-11.102
Ch	-11.102
▁Honey	-11.1021
▁interior	-11.1024
▁rip	-11.1028
▁generated	-11.1028
▁nowhere	-11.1028
▁snap	-11.1033
▁swing	-11.1034
awa	-11.1034
▁scheduled	-11.1035
▁awards	-11.1037
▁writers	-11.1037
▁partnership	-11.1037
EM	-11.1039
▁universities	-11.1044
atic	-11.1045
▁1968	-11.1046
▁tactic	-11.1046
▁Ve	-11.1051
34	-11.1054
▁considering	-11.1056
▁behave	-11.1057
▁Golden	-11.1061
▁molecule	-11.1064
▁shoe	-11.1065
▁pageant	-11.1065
▁que	-11.1067
▁ongoing	-11.107
2%	-11.1074
▁coal	-11.1076
▁dosage	-11.1077
gate	-11.108
▁superior	-11.1082
▁extensive	-11.1082
▁rubber	-11.1083
▁pace	-11.1091
▁unlikely	-11.1093
▁featuring	-11.1094
▁elsewhere	-11.1096
▁Vol	-11.1097
▁workout	-11.1097
▁paintings	-11.1099
▁Plus	-11.1099
▁taxes	-11.1101
▁Sister	-11.1102
ington	-11.1102
▁2018.	-11.1107
▁Wii	-11.111
▁Chilean	-11.1112
▁Seven	-11.1112
lex	-11.1117
▁Title	-11.1121
96	-11.1123
▁centers	-11.1124
▁indicated	-11.1125
ope	-11.1129
Cl	-11.1131
▁expecting	-11.1132
▁honour	-11.1132
▁spider	-11.1132
▁championship	-11.1133
▁searching	-11.1136
grad	-11.114
▁pill	-11.1143
▁33	-11.1143
▁awkward	-11.1144
▁explosion	-11.1144
▁piano	-11.1145
▁1971	-11.1146
▁Wh	-11.1154
▁yogurt	-11.1157
▁plum	-11.116
lot	-11.1162
▁crimes	-11.1165
▁wh	-11.1166
▁indicates	-11.1169
▁Mad	-11.1169
▁molecular	-11.1169
▁naval	-11.117
▁worker	-11.117
▁absolute	-11.117
▁Final	-11.1171
▁filling	-11.1172
▁handed	-11.1175
▁arc	-11.1179
▁2014.	-11.1183
under	-11.1183
▁Khan	-11.1183
▁safely	-11.1184
▁relation	-11.1185
▁lied	-11.1186
▁Sega	-11.1188
▁joining	-11.119
▁Bible	-11.1192
rze	-11.1192
▁chip	-11.1193
▁blade	-11.1195
▁Palace	-11.1196
▁poem	-11.1198
▁exile	-11.1202
▁bandage	-11.1204
cular	-11.1204
▁courage	-11.1206
▁runner	-11.1207
▁demon	-11.1207
lum	-11.1207
▁cord	-11.1208
▁registered	-11.1216
▁bend	-11.1216
▁Kepler	-11.122
▁balls	-11.122
▁Wor	-11.1221
▁mill	-11.1223
▁Johnson	-11.1227
▁retired	-11.1229
▁cognitive	-11.1232
▁convention	-11.1233
▁organs	-11.1233
▁scare	-11.1233
▁ti	-11.1234
▁Bla	-11.1236
▁belly	-11.1239
izer	-11.1243
▁pH	-11.1244
▁substitute	-11.1245
▁FBI	-11.1245
you	-11.1248
ía	-11.125
▁threatening	-11.1255
▁qualities	-11.1258
▁surgical	-11.1258
▁theme	-11.1258
sure	-11.1271
▁bin	-11.1272
▁lid	-11.1275
▁regarded	-11.1275
▁disrupt	-11.1277
▁Ai	-11.1283
▁Sweden	-11.1283
▁educational	-11.1287
▁Save	-11.1292
▁tracking	-11.1293
rid	-11.1295
▁invasion	-11.1296
▁citizen	-11.1297
▁beef	-11.1299
▁texture	-11.1299
36	-11.13
▁topics	-11.1302
rc	-11.1304
hand	-11.1307
▁abstract	-11.1309
▁intensity	-11.1309
▁clue	-11.1309
My	-11.1309
rad	-11.1313
▁potent	-11.1313
▁Kit	-11.1316
▁silent	-11.1321
▁Alexander	-11.1322
▁chamber	-11.1322
▁assumed	-11.1322
▁yoga	-11.1322
▁bat	-11.1324
▁Trust	-11.1326
▁proved	-11.1328
▁converted	-11.1328
IC	-11.133
▁gathering	-11.1333
▁valley	-11.1335
▁genre	-11.1335
scribe	-11.1336
▁Fair	-11.134
ET	-11.134
die	-11.1341
rri	-11.1342
▁proven	-11.1343
▁cyst	-11.1344
▁rooms	-11.1347
▁Sol	-11.1356
▁trusted	-11.136
▁darling	-11.136
▁realistic	-11.1367
▁detailed	-11.1371
▁1941	-11.1374
LA	-11.1376
▁productive	-11.1376
name	-11.1376
Pa	-11.1376
acy	-11.1378
kov	-11.1379
47	-11.1382
path	-11.1382
including	-11.1382
▁mechanical	-11.1383
▁stopping	-11.1384
▁analog	-11.1385
▁strategies	-11.1386
▁flesh	-11.1386
▁dentist	-11.1386
▁curious	-11.1386
▁asshole	-11.1386
▁1962	-11.1387
▁1967	-11.1387
▁aspect	-11.1389
▁curse	-11.139
▁symptom	-11.1391
▁suitable	-11.1392
▁privacy	-11.1398
▁insulin	-11.1399
▁polish	-11.1399
▁Dark	-11.1399
rou	-11.1399
▁establishment	-11.1404
49	-11.1405
▁37	-11.1411
▁adequate	-11.1411
▁Olympic	-11.1416
arm	-11.1417
▁Officer	-11.1419
▁noble	-11.1425
▁intend	-11.1425
▁synthesis	-11.1436
▁entitled	-11.1437
▁underground	-11.1441
ement	-11.1442
▁beating	-11.1443
▁dam	-11.1444
atch	-11.1448
▁meaningful	-11.145
▁assignment	-11.145
▁viral	-11.1452
▁unlike	-11.1457
▁stadium	-11.1463
▁teaspoon	-11.1463
▁ecosystem	-11.1463
▁tries	-11.1472
▁transmission	-11.1476
▁surgeon	-11.1478
xa	-11.1479
onia	-11.148
▁Buy	-11.1481
▁Bol	-11.1489
▁Universe	-11.1489
▁mature	-11.1492
▁Rosa	-11.1501
iel	-11.1502
▁Defense	-11.1502
▁entertainment	-11.1503
▁harmful	-11.1505
ido	-11.1507
▁substances	-11.1508
zan	-11.1514
kar	-11.1514
▁assumption	-11.1515
▁spill	-11.1515
▁translation	-11.1516
▁spark	-11.1516
▁trapped	-11.1517
▁speaker	-11.1522
▁carb	-11.1523
▁insects	-11.1525
▁disappeared	-11.1527
▁42	-11.1528
▁Elizabeth	-11.1528
▁occupation	-11.1528
▁Switch	-11.1528
▁Taking	-11.1531
▁Getting	-11.1533
▁ruler	-11.1534
nci	-11.1536
get	-11.1538
▁Republican	-11.154
▁mathematical	-11.1541
▁loving	-11.1541
▁dramatic	-11.1543
▁apparently	-11.1543
▁Radio	-11.1545
bli	-11.1545
▁rope	-11.1546
▁beta	-11.1546
▁preventing	-11.1547
▁gland	-11.1549
▁slave	-11.155
▁2020,	-11.1551
▁hardly	-11.1552
▁reasonable	-11.1553
▁Harvard	-11.1554
▁choosing	-11.1554
▁exceed	-11.1554
▁attempted	-11.1555
▁hire	-11.1559
▁sooner	-11.156
state	-11.1563
▁(0	-11.1564
▁visiting	-11.1564
▁Excuse	-11.1567
▁segment	-11.1567
▁structural	-11.1567
▁san	-11.1568
▁signature	-11.1568
▁dip	-11.1573
▁HD	-11.1573
▁inspiration	-11.1576
gna	-11.158
▁Switzerland	-11.158
▁Puerto	-11.158
▁lecture	-11.1583
▁rhythm	-11.1586
bing	-11.1587
pect	-11.1588
rov	-11.1591
uz	-11.1593
▁prisoner	-11.1594
▁carpet	-11.1594
▁55	-11.1597
▁Centre	-11.1602
▁Detective	-11.1607
▁Family	-11.1607
IN	-11.1607
▁Otherwise	-11.1607
▁hum	-11.1608
▁Cambodia	-11.1612
▁Clo	-11.1612
▁lessons	-11.1616
Ca	-11.1618
▁affection	-11.1619
▁embrace	-11.162
▁struck	-11.162
▁gray	-11.1622
▁sixth	-11.1624
ites	-11.1627
▁COVID	-11.1633
▁span	-11.1633
▁struggling	-11.1633
▁awesome	-11.1633
▁cheek	-11.1633
▁outfit	-11.1634
gal	-11.1637
▁potatoes	-11.1638
▁Wood	-11.1639
▁Pass	-11.1646
▁convinced	-11.1651
▁Road	-11.1653
▁ja	-11.1654
▁sneak	-11.1659
vy	-11.166
▁guilt	-11.1661
▁Send	-11.1665
▁evaluate	-11.1667
▁viruses	-11.167
▁Mol	-11.1672
▁esteem	-11.1673
▁Agency	-11.1673
▁pushed	-11.1674
▁rob	-11.1674
▁collective	-11.1677
▁procedures	-11.1682
▁duration	-11.1687
▁biology	-11.1688
▁lowest	-11.1689
▁None	-11.1693
▁tale	-11.1701
▁pie	-11.1705
▁Tur	-11.1708
▁comments	-11.171
▁agricultural	-11.1712
una	-11.1715
▁Region	-11.1715
▁peer	-11.172
ancy	-11.1722
MS	-11.1724
▁steroid	-11.1725
▁dairy	-11.1726
▁threw	-11.1726
▁adventure	-11.1726
▁distract	-11.1731
▁Must	-11.1734
▁stones	-11.1734
▁selective	-11.174
asse	-11.1742
▁commission	-11.1743
▁argued	-11.1744
▁Eu	-11.1745
▁Eli	-11.1747
phon	-11.1749
▁directions	-11.1749
self	-11.1752
▁guards	-11.1752
▁monument	-11.1752
▁chloride	-11.1752
▁silly	-11.1752
▁Either	-11.1753
▁tissues	-11.1753
▁employed	-11.1759
read	-11.176
▁guests	-11.1761
▁zoo	-11.1765
▁bri	-11.1765
▁avoiding	-11.1765
▁tropical	-11.1766
dro	-11.1769
emia	-11.1772
place	-11.1773
▁affairs	-11.1773
▁stolen	-11.1774
gia	-11.1777
▁advertising	-11.1779
▁turtle	-11.1779
▁unexpected	-11.1779
▁housing	-11.178
CO	-11.1781
ao	-11.1781
▁publisher	-11.1782
uma	-11.1783
▁ga	-11.1784
▁gloves	-11.1786
even	-11.1786
▁designated	-11.1788
▁handling	-11.1789
▁grid	-11.1789
▁finishing	-11.1791
pit	-11.1794
ST	-11.1796
▁Girls	-11.1796
▁characterized	-11.1798
▁clubs	-11.1799
▁seats	-11.18
dal	-11.1802
▁artistic	-11.1805
Music	-11.1805
▁earliest	-11.1806
▁squad	-11.1806
via	-11.1817
▁caffeine	-11.1819
▁scheme	-11.1819
▁transformation	-11.1826
▁secrets	-11.1826
▁Fran	-11.1829
▁Gate	-11.1829
▁fatty	-11.1829
▁programming	-11.1833
▁dense	-11.1834
hl	-11.1836
▁Soon	-11.1836
▁websites	-11.184
▁Kill	-11.1841
▁Medicine	-11.1846
▁Santiago	-11.1846
▁efficacy	-11.1846
▁engaging	-11.1846
▁strand	-11.1846
▁NASA	-11.1846
▁Uncle	-11.1847
▁1965	-11.1848
cate	-11.1852
▁interfere	-11.1859
▁damp	-11.1862
▁prince	-11.1865
word	-11.1867
inter	-11.1871
ibly	-11.1872
▁distraction	-11.1872
▁legend	-11.1873
▁Library	-11.1873
▁widespread	-11.1873
▁Ty	-11.1873
▁dioxide	-11.1874
▁oh	-11.1874
▁creatures	-11.1876
▁informed	-11.1876
OC	-11.1881
▁teenager	-11.1884
▁(9	-11.1887
▁admire	-11.1887
▁resume	-11.1887
ground	-11.1888
▁civilization	-11.189
▁Board	-11.1892
▁Bad	-11.1895
▁sandwich	-11.19
▁tin	-11.1901
▁fortune	-11.1901
card	-11.191
▁upload	-11.1911
aku	-11.1914
▁governor	-11.1917
▁awake	-11.1918
▁Cri	-11.1922
▁insight	-11.1923
▁imagination	-11.1927
▁metabolism	-11.1927
▁demonstrated	-11.1928
▁fighter	-11.1931
▁38	-11.1932
▁merely	-11.1935
▁fatal	-11.1939
yer	-11.1942
▁clicking	-11.1947
▁beneficial	-11.1955
▁dwarf	-11.1955
▁scalp	-11.1955
▁Turkey	-11.1955
▁logo	-11.1958
▁limb	-11.1959
▁Step	-11.1961
vid	-11.1965
▁Pon	-11.1966
▁traveled	-11.1967
▁warrior	-11.1968
▁specialist	-11.197
xe	-11.197
▁Rest	-11.197
▁priority	-11.1973
▁Amazon	-11.1982
▁categories	-11.1982
▁spoon	-11.1982
band	-11.1986
bul	-11.1987
pr	-11.1988
62	-11.1992
▁AIDS	-11.1996
▁Guard	-11.1996
▁1969	-11.1997
▁File	-11.1998
▁enjoyed	-11.2
72	-11.2002
▁functional	-11.2002
▁bow	-11.2003
CC	-11.2005
So	-11.2005
▁(10	-11.2009
▁notion	-11.201
phil	-11.2011
azi	-11.2019
ema	-11.2022
▁releasing	-11.2023
▁badly	-11.2023
▁Senator	-11.2024
▁lap	-11.2024
▁Iron	-11.2024
▁Colombian	-11.2029
uan	-11.2032
▁Sz	-11.2032
▁demands	-11.2033
▁puzzle	-11.2037
▁withdrawal	-11.204
▁mod	-11.2043
▁laughing	-11.2045
▁educated	-11.2045
▁investors	-11.2046
▁diversity	-11.205
▁framework	-11.2051
▁Uni	-11.2052
▁usage	-11.2054
SC	-11.2056
AA	-11.2061
▁Thai	-11.2062
▁shorter	-11.2063
57	-11.2063
Ar	-11.2064
▁brilliant	-11.2064
▁preference	-11.2066
▁Costa	-11.2068
▁discussed	-11.2069
56	-11.2071
▁crown	-11.2075
▁Stone	-11.2077
▁telephone	-11.2078
▁insult	-11.2079
▁1964	-11.2079
▁continuous	-11.208
▁processor	-11.2083
iff	-11.2088
▁pile	-11.2088
nger	-11.2089
▁capabilities	-11.2092
▁preferred	-11.2094
zen	-11.2094
▁flush	-11.2101
▁darkness	-11.2102
ña	-11.2103
▁cholesterol	-11.2105
▁Federation	-11.2106
▁Identify	-11.2106
▁Arm	-11.2107
Se	-11.2107
▁processed	-11.2109
wal	-11.2114
▁sized	-11.2116
empt	-11.2117
▁mini	-11.2119
▁remarkable	-11.2119
▁companion	-11.2119
▁Boston	-11.212
▁Coast	-11.212
▁cuts	-11.2124
ough	-11.2127
▁Name	-11.2131
▁Gil	-11.2135
▁Barry	-11.2135
▁divorce	-11.2135
▁existed	-11.2136
▁Jamaica	-11.214
isation	-11.2142
▁reaches	-11.2143
ello	-11.2144
▁weakness	-11.2145
▁equally	-11.2146
▁economies	-11.2147
▁headquarters	-11.2147
▁register	-11.2152
▁restrict	-11.2152
▁Ger	-11.2154
ín	-11.2155
▁Len	-11.2156
ille	-11.2157
▁specialized	-11.2158
▁trading	-11.2161
▁deny	-11.2164
nda	-11.2165
▁Jones	-11.2168
versus	-11.2173
▁invitation	-11.2175
▁Idlib	-11.2175
▁1956	-11.2176
▁flour	-11.2176
▁melt	-11.2183
▁representation	-11.2185
▁clot	-11.2187
▁execution	-11.2189
▁Modern	-11.2189
▁employment	-11.219
▁Tony	-11.2193
,500	-11.2194
▁backup	-11.2203
▁transaction	-11.2203
▁pound	-11.2205
cat	-11.2208
chin	-11.2209
▁moist	-11.2211
flow	-11.2212
▁ser	-11.2212
ulu	-11.2215
▁spiral	-11.2217
▁counselor	-11.2219
▁relaxed	-11.2221
▁weekly	-11.2222
▁Within	-11.2224
▁Solar	-11.2227
TA	-11.2228
nut	-11.2228
▁experiments	-11.2228
4%	-11.223
▁agriculture	-11.2231
▁jurisdiction	-11.2231
▁miracle	-11.2231
▁goodbye	-11.2231
▁boring	-11.2233
▁Better	-11.2236
tti	-11.2238
▁Euro	-11.224
▁Cel	-11.2242
▁Deputy	-11.2245
▁narrative	-11.2245
▁organisation	-11.2245
▁sustainable	-11.2246
▁Design	-11.2247
▁Station	-11.225
▁appetite	-11.2259
▁gesture	-11.2259
▁dominant	-11.2259
▁resort	-11.2259
▁Standard	-11.2259
power	-11.226
▁jacket	-11.2261
cast	-11.2263
▁stir	-11.2263
azine	-11.2264
8%	-11.2265
▁render	-11.2266
gno	-11.2269
▁bid	-11.2269
▁rib	-11.2271
▁neurons	-11.2272
FA	-11.2272
▁ur	-11.2272
▁varieties	-11.2273
▁protocol	-11.2273
▁Theatre	-11.2274
▁Rick	-11.2274
▁snack	-11.2275
▁lighter	-11.2276
▁Hay	-11.2279
▁princess	-11.2281
▁Sar	-11.2284
CD	-11.2286
▁challenging	-11.2287
▁threats	-11.2287
▁glue	-11.2288
▁sensor	-11.229
▁Holy	-11.2296
▁throwing	-11.2298
▁opinions	-11.2299
▁cabinet	-11.2302
▁scored	-11.2303
▁methyl	-11.2303
▁diagnosed	-11.2304
46	-11.2305
▁marine	-11.2306
▁historic	-11.2309
▁Wow	-11.231
▁Phil	-11.2314
▁triangle	-11.2315
eva	-11.2315
▁Fill	-11.2316
▁Bridge	-11.2317
▁blanket	-11.2319
▁Victor	-11.232
▁Andrew	-11.233
▁pathway	-11.2332
▁fallen	-11.2335
▁nap	-11.2335
▁2019.	-11.2336
▁MP	-11.2337
▁Code	-11.2341
▁Cook	-11.2343
▁Culture	-11.2343
▁violation	-11.2343
ła	-11.2344
▁continent	-11.2346
44	-11.2347
final	-11.2348
▁critics	-11.2349
▁opt	-11.2353
asa	-11.2355
▁ulcer	-11.2357
eller	-11.2358
▁1963	-11.2359
▁crossed	-11.236
▁Rus	-11.2362
▁constructed	-11.2362
▁pla	-11.2362
dri	-11.2363
▁describes	-11.2364
lash	-11.2365
▁magnetic	-11.2366
▁Friend	-11.2372
▁1961	-11.2373
▁accompanied	-11.2375
▁engagement	-11.2378
▁Fra	-11.2379
RE	-11.2381
▁correspond	-11.2382
▁Phu	-11.2385
▁suggestion	-11.2387
▁theories	-11.2388
▁Blood	-11.2388
▁Tim	-11.24
▁pride	-11.2401
▁Wilson	-11.2401
▁disputes	-11.2404
▁pulse	-11.2405
▁Grace	-11.2407
▁painter	-11.2408
▁Low	-11.241
▁Ann	-11.241
▁(17	-11.2412
▁permit	-11.2414
▁analyze	-11.2414
▁Spend	-11.2416
▁riding	-11.2417
vie	-11.2421
isa	-11.2426
zz	-11.2427
test	-11.2427
▁Tam	-11.2429
▁Peace	-11.243
vation	-11.2441
▁Guatemala	-11.2443
▁calendar	-11.2443
▁grill	-11.2443
▁burden	-11.2443
▁diver	-11.2444
▁Voice	-11.2445
▁Market	-11.2447
▁Bon	-11.2454
▁viewed	-11.2456
▁passes	-11.2458
▁Eric	-11.2462
▁Monica	-11.2464
▁trillion	-11.2471
▁1959	-11.2473
▁VND	-11.2473
▁vitamins	-11.2473
▁Miami	-11.2474
▁Danny	-11.2474
▁regulations	-11.2476
phone	-11.2477
▁insist	-11.2482
▁Sim	-11.2483
phen	-11.2485
▁responses	-11.2485
▁genius	-11.2486
▁steady	-11.2486
▁texts	-11.2489
▁Speak	-11.2497
200	-11.25
▁nominated	-11.25
▁qualify	-11.25
▁historian	-11.25
uous	-11.2502
▁campus	-11.2503
mont	-11.2508
zzle	-11.251
▁deck	-11.2511
▁hormones	-11.2513
▁agonist	-11.2515
▁burst	-11.2518
▁qualified	-11.2529
▁tattoo	-11.2529
▁indoor	-11.2529
AD	-11.2532
▁relate	-11.254
▁parking	-11.2542
▁sculpture	-11.2543
▁Video	-11.2544
▁concluded	-11.2545
▁elite	-11.2548
gor	-11.255
▁translated	-11.255
▁contributed	-11.2554
▁monthly	-11.2555
▁ok	-11.256
gli	-11.2562
▁neighbor	-11.2566
▁rebel	-11.2567
▁fluids	-11.257
▁Nar	-11.2572
▁survivor	-11.2572
▁psychology	-11.2573
▁Cam	-11.2576
fire	-11.2578
▁wooden	-11.258
▁tears	-11.2582
nz	-11.2585
▁upstairs	-11.2587
▁Except	-11.2588
▁passport	-11.2588
▁pat	-11.26
▁comedy	-11.2601
▁communist	-11.2601
▁worship	-11.2601
▁Mid	-11.2605
▁blocking	-11.2605
itude	-11.2606
▁relaxation	-11.2608
▁consideration	-11.2614
▁Governor	-11.2614
where	-11.2616
ific	-11.2616
▁reduces	-11.2616
▁mystery	-11.2616
▁suggesting	-11.2617
▁logic	-11.262
▁transportation	-11.2621
nol	-11.2623
▁lover	-11.2623
▁Mill	-11.2624
lian	-11.2624
▁Billy	-11.2625
▁conditioner	-11.2626
▁Shut	-11.2627
▁dynasty	-11.263
▁veterinarian	-11.263
▁distant	-11.263
nta	-11.2632
otic	-11.2632
▁participants	-11.2635
▁reign	-11.2638
▁Wil	-11.264
▁pea	-11.2642
▁publicly	-11.2643
▁observation	-11.2643
DS	-11.2645
▁behalf	-11.2645
▁cyber	-11.2645
▁regardless	-11.2647
▁waist	-11.2648
human	-11.2649
▁Cover	-11.265
▁Bio	-11.2651
▁emerged	-11.2656
▁Dun	-11.2656
▁Close	-11.2657
ór	-11.266
rator	-11.2664
chan	-11.2669
▁actively	-11.267
▁Brand	-11.2671
▁distinguish	-11.2671
▁territorial	-11.2674
▁shore	-11.2674
▁bulb	-11.2674
▁smartphone	-11.2675
▁afterwards	-11.2675
▁GDP	-11.2676
▁reporter	-11.2677
AP	-11.2678
▁concepts	-11.2679
▁protective	-11.2687
▁Kha	-11.2688
▁Determine	-11.2689
▁Meanwhile	-11.2689
▁inhabitants	-11.2689
iest	-11.2689
▁laboratory	-11.2689
▁1958	-11.269
▁cope	-11.2692
eau	-11.2692
▁stations	-11.2696
▁retail	-11.2697
▁Mari	-11.2698
▁Dean	-11.27
▁atoms	-11.27
▁Band	-11.2701
▁Model	-11.2701
▁Pole	-11.2703
▁calorie	-11.2703
▁efficiency	-11.2703
▁squeeze	-11.2703
▁alliance	-11.2704
rah	-11.2704
▁collar	-11.2704
▁Ireland	-11.2707
▁Program	-11.2709
face	-11.271
▁detected	-11.271
▁chairman	-11.2711
▁slight	-11.2711
▁99	-11.2713
rif	-11.2715
▁mole	-11.2717
▁Through	-11.2718
▁Support	-11.2718
▁Digital	-11.2718
▁lonely	-11.2718
▁Short	-11.2722
▁Cold	-11.2723
▁100%	-11.2724
▁repeated	-11.2724
person	-11.2729
▁emphasize	-11.2733
▁intelligent	-11.2733
▁enforcement	-11.2734
nation	-11.2738
TP	-11.2739
▁Spo	-11.2742
czy	-11.2744
▁axis	-11.2744
▁Tal	-11.2746
▁importantly	-11.2747
▁fantastic	-11.2748
▁intimate	-11.2748
▁1966	-11.275
eti	-11.275
▁consisting	-11.275
▁assert	-11.2752
▁burns	-11.2755
▁targets	-11.2755
▁Eye	-11.2756
logy	-11.2759
gel	-11.2759
▁testosterone	-11.2762
▁arrival	-11.2762
▁depressed	-11.2762
▁prospect	-11.2762
▁rifle	-11.2762
print	-11.2766
▁generations	-11.2768
▁prayer	-11.277
chu	-11.2771
▁decreased	-11.2771
▁Simon	-11.2775
SO	-11.2776
▁iPad	-11.2777
▁Studio	-11.2777
▁Calcio	-11.2778
▁transit	-11.2778
▁Spa	-11.2779
▁Portuguese	-11.2781
INN	-11.2781
prop	-11.2783
▁manga	-11.2785
▁Sk	-11.2786
▁polite	-11.2792
▁Spring	-11.2793
▁outcomes	-11.2794
▁spelled	-11.2795
ode	-11.2795
▁emerge	-11.2797
▁observe	-11.2799
▁balanced	-11.2801
olic	-11.2802
▁astronomer	-11.2807
▁grocery	-11.2807
▁wisdom	-11.2807
▁terminal	-11.2807
▁Walter	-11.2807
▁bug	-11.2808
▁Join	-11.2811
100	-11.2814
▁Angel	-11.2816
yon	-11.2817
▁bars	-11.2819
▁promoting	-11.2822
▁Break	-11.2822
▁classroom	-11.2824
▁devil	-11.2826
▁grows	-11.2827
▁Au	-11.2828
mie	-11.2829
▁correctly	-11.283
▁Down	-11.2831
▁absorbed	-11.2834
ova	-11.2835
▁owners	-11.2836
43	-11.2837
▁Saturn	-11.2837
▁reviews	-11.2838
42	-11.2839
▁rape	-11.2841
▁Walk	-11.2842
▁Qui	-11.2846
hol	-11.2846
▁scary	-11.2848
▁Dance	-11.2849
▁heating	-11.285
▁currency	-11.2851
▁polar	-11.2851
▁EU	-11.2853
▁interpretation	-11.2857
▁suspected	-11.2864
▁visitors	-11.2867
▁clay	-11.2868
▁Ref	-11.2869
bot	-11.2873
▁ranking	-11.2874
leg	-11.2878
lide	-11.2879
▁diamond	-11.2881
▁1946	-11.2882
▁raid	-11.2886
▁counting	-11.2888
▁robots	-11.2889
▁throne	-11.2896
▁Information	-11.2896
▁nightmare	-11.2896
▁peroxide	-11.2897
▁1943	-11.2897
▁occurring	-11.2898
▁toast	-11.2901
▁classification	-11.2901
▁Recognize	-11.2904
▁golden	-11.2909
▁Buddhist	-11.2911
▁fatigue	-11.2911
▁tune	-11.2913
▁shave	-11.2913
▁1.5	-11.2914
any	-11.2922
▁graph	-11.2924
De	-11.2925
▁linear	-11.2927
▁varies	-11.2929
▁Vega	-11.293
▁closest	-11.2941
▁Meet	-11.2941
used	-11.2941
▁perceived	-11.2941
ibility	-11.2942
▁interpret	-11.2943
virus	-11.2944
erg	-11.2946
▁Rh	-11.2947
▁affair	-11.2948
▁hunger	-11.295
▁Chan	-11.2956
▁aged	-11.2956
▁Local	-11.2958
▁drove	-11.2958
▁wireless	-11.2959
58	-11.2959
▁fled	-11.2961
ologists	-11.2961
▁successor	-11.2964
▁spy	-11.2969
▁basement	-11.297
▁Continue	-11.2971
▁1942	-11.2972
▁Lan	-11.2973
▁manufactured	-11.2974
▁punish	-11.2975
▁39	-11.2975
▁chase	-11.2978
▁Masurian	-11.2986
▁feminist	-11.2986
▁relegated	-11.2986
▁empire	-11.2986
▁gross	-11.2986
▁ugly	-11.2986
▁licensed	-11.2987
▁empower	-11.2987
▁interval	-11.2988
▁diverse	-11.299
▁folk	-11.2994
rog	-11.2999
oke	-11.3001
▁Swedish	-11.3001
▁anniversary	-11.3001
▁clever	-11.3001
▁arranged	-11.3004
▁Zu	-11.3006
Po	-11.3006
▁clan	-11.3009
▁Dec	-11.3012
▁attraction	-11.3013
▁pond	-11.3013
▁sexy	-11.3014
▁thereby	-11.3015
▁Baby	-11.3016
▁Lieutenant	-11.3016
▁drown	-11.3017
▁residence	-11.3017
▁Small	-11.3017
▁Pin	-11.3018
▁Drive	-11.3019
▁Duke	-11.3022
▁bold	-11.3024
truc	-11.3027
▁sheets	-11.3027
▁motivated	-11.303
▁bladder	-11.3032
▁Channel	-11.3032
▁trunk	-11.3032
▁profound	-11.3032
▁painted	-11.3035
LC	-11.3035
▁outline	-11.3036
▁Kon	-11.3042
▁Fox	-11.3044
▁Arch	-11.3047
▁creativity	-11.3047
▁dialogue	-11.3047
▁detective	-11.3049
iva	-11.305
▁Report	-11.3053
agon	-11.3053
▁Fred	-11.3055
▁mineral	-11.3056
TV	-11.3056
▁ingredient	-11.3056
▁Found	-11.3061
key	-11.3062
▁identical	-11.3062
▁Czech	-11.3062
▁vent	-11.3063
▁liter	-11.3064
6%	-11.3065
▁pressing	-11.3066
▁cheat	-11.3068
▁Para	-11.3072
▁instruments	-11.3075
▁120	-11.3075
▁preparing	-11.3077
▁renamed	-11.3077
▁Ak	-11.3078
▁employ	-11.3078
▁Search	-11.3079
▁Pain	-11.3079
▁SS	-11.308
▁Girl	-11.3089
▁Secret	-11.3091
▁stranger	-11.3091
▁ml	-11.3092
▁indication	-11.3093
▁dispute	-11.3093
skie	-11.3094
▁exclusive	-11.3096
▁concentrations	-11.3096
▁forests	-11.3096
▁dealer	-11.3102
morph	-11.3102
▁Heart	-11.3103
▁prevention	-11.3103
▁vessel	-11.3103
▁Pull	-11.3104
▁crossing	-11.3105
organ	-11.3105
▁composer	-11.3108
▁participation	-11.3108
▁complications	-11.3108
▁Spi	-11.3115
using	-11.3117
▁decent	-11.3118
▁scrap	-11.312
nar	-11.312
▁Var	-11.3121
▁Az	-11.3121
▁woods	-11.3122
▁rap	-11.3123
▁Rwanda	-11.3123
▁jaw	-11.3126
▁Records	-11.3126
▁warrant	-11.3126
▁daddy	-11.3127
▁Fer	-11.3133
▁Kam	-11.3133
▁charm	-11.3133
▁blank	-11.3134
view	-11.3134
▁teen	-11.3136
▁measuring	-11.3138
▁lion	-11.3139
▁1949	-11.314
▁1948	-11.314
▁Often	-11.3142
hab	-11.3143
aj	-11.3145
▁publishing	-11.3148
▁actors	-11.3149
▁Fri	-11.3153
▁precious	-11.3154
▁silk	-11.3154
▁venture	-11.3154
▁McC	-11.3154
▁Tha	-11.3159
▁allies	-11.3167
▁Tuesday	-11.3169
▁minimal	-11.317
▁firms	-11.317
▁Virginia	-11.3171
▁approaches	-11.3172
▁regulate	-11.3174
ED	-11.3177
ifying	-11.3179
54	-11.318
SP	-11.3182
ride	-11.3182
▁bal	-11.3183
▁sphere	-11.3184
▁Vir	-11.3189
▁Treat	-11.3189
▁preserve	-11.319
▁Direct	-11.3191
worm	-11.3192
▁conventional	-11.3199
▁encouraged	-11.32
▁ridiculous	-11.32
▁glucose	-11.32
▁posture	-11.3204
oz	-11.3205
▁mol	-11.3209
▁warned	-11.3213
▁circular	-11.3215
glo	-11.3216
▁rejection	-11.3218
▁remembered	-11.3219
▁personnel	-11.3222
▁links	-11.3223
pra	-11.3224
▁Commander	-11.3225
▁smells	-11.3228
▁leather	-11.3231
▁Warmian	-11.3231
gui	-11.3232
▁charity	-11.3233
▁stealing	-11.3234
▁Ny	-11.3235
▁localities	-11.3239
▁Tele	-11.3241
▁Role	-11.3242
▁executed	-11.3242
▁aunt	-11.3243
▁trim	-11.3245
▁Probably	-11.3246
▁northeast	-11.3246
▁Net	-11.3247
▁cardiac	-11.3247
▁restrictions	-11.3247
quin	-11.3247
eff	-11.3248
ense	-11.3248
▁tips	-11.3252
-19	-11.3252
▁Draw	-11.3253
Con	-11.3259
▁op	-11.3259
▁territories	-11.3262
▁irregular	-11.3262
▁Class	-11.3264
▁router	-11.3265
Li	-11.3267
thal	-11.3272
▁Hard	-11.3274
▁tickets	-11.3276
▁abnormal	-11.3277
▁philosopher	-11.3277
▁quantum	-11.3277
▁orphan	-11.3277
▁partial	-11.3277
▁touched	-11.3278
▁psychologist	-11.3279
▁Ash	-11.3282
▁founding	-11.3283
▁Non	-11.3283
▁pole	-11.3286
▁2,000	-11.3287
▁attending	-11.3288
▁MS	-11.3288
AC	-11.329
▁Death	-11.3296
enc	-11.3299
▁sentenced	-11.3301
▁jet	-11.3303
▁candle	-11.3304
▁Pur	-11.3304
▁effectiveness	-11.3307
▁Greece	-11.3308
▁Thursday	-11.3308
▁replacing	-11.3308
▁vaginal	-11.3308
▁solving	-11.3308
▁rubbing	-11.3309
▁mon	-11.3309
▁1954	-11.331
▁succeeded	-11.3313
law	-11.3316
▁suspended	-11.3316
59	-11.3316
▁winds	-11.3318
mph	-11.3319
▁wings	-11.332
cade	-11.3321
▁healthcare	-11.3324
▁Dude	-11.3326
MP	-11.3332
▁Cer	-11.3333
oxi	-11.3335
wel	-11.3336
▁sinus	-11.334
▁passengers	-11.3343
▁starred	-11.3346
raz	-11.3347
▁elevated	-11.3349
▁reflection	-11.3354
1)	-11.3355
▁industries	-11.3355
▁invisible	-11.3355
ño	-11.3358
▁wounds	-11.3369
▁recipient	-11.3371
▁shrink	-11.3371
▁pets	-11.3371
▁worsen	-11.3373
▁reporting	-11.3374
▁chips	-11.3377
For	-11.3386
▁Tin	-11.3387
▁shark	-11.3387
▁edges	-11.3389
▁brick	-11.3389
▁triggers	-11.3393
▁worn	-11.3394
▁0.0	-11.3395
▁ter	-11.3396
▁operated	-11.3396
▁1955	-11.3404
▁precise	-11.3406
eration	-11.3409
▁pork	-11.3411
▁habitat	-11.3415
ND	-11.3415
▁parliament	-11.3417
▁Key	-11.3417
▁economist	-11.3418
▁itching	-11.3419
▁Alternatively	-11.3421
▁shi	-11.3423
▁estimate	-11.3429
▁galaxies	-11.3434
▁garbage	-11.3434
▁horrible	-11.3434
▁denied	-11.3434
bell	-11.3435
▁prone	-11.3435
▁Review	-11.3436
▁abdominal	-11.3438
▁duck	-11.3439
▁Deep	-11.3441
▁Tai	-11.3444
▁Myanmar	-11.345
▁cuisine	-11.345
▁lip	-11.3451
lov	-11.3454
▁minerals	-11.3455
▁induce	-11.3457
▁coup	-11.3458
tech	-11.3458
▁addict	-11.3464
▁constitute	-11.3465
▁whoever	-11.3466
away	-11.3466
▁der	-11.3469
vil	-11.3473
▁notably	-11.3474
▁earning	-11.3478
PC	-11.3481
▁examination	-11.3481
▁1957	-11.3483
▁pointed	-11.3489
ois	-11.349
61	-11.349
friend	-11.3492
▁Data	-11.3493
▁constitution	-11.3494
▁retirement	-11.3498
▁Honor	-11.3499
▁bias	-11.3503
▁Hal	-11.3512
▁fri	-11.3513
▁elevator	-11.3513
▁maintenance	-11.3513
▁pee	-11.3513
▁statue	-11.3513
▁wishes	-11.3517
emic	-11.3517
▁asteroid	-11.3521
aire	-11.3521
east	-11.3523
600	-11.3524
▁Opera	-11.3525
▁laundry	-11.3529
▁observations	-11.3531
▁Jin	-11.3533
▁rear	-11.3536
▁Marine	-11.3541
▁blocked	-11.3542
▁possession	-11.3542
▁infinite	-11.3545
EA	-11.3546
▁Less	-11.3553
3)	-11.3554
▁jam	-11.3558
▁portrait	-11.3561
▁serial	-11.3562
▁1952	-11.3562
▁involvement	-11.3564
last	-11.3566
▁upward	-11.3566
▁hostage	-11.3566
▁fence	-11.3568
▁maintained	-11.3573
▁sting	-11.3575
▁custody	-11.3577
▁demonstration	-11.3577
▁negotiate	-11.3577
www	-11.3577
▁gran	-11.3579
▁Guys	-11.358
▁Roll	-11.358
▁regimen	-11.3581
▁Roger	-11.3581
▁gentleman	-11.3581
..."	-11.3584
▁distinction	-11.3585
▁Kh	-11.3588
▁Dave	-11.3592
▁happier	-11.3593
▁instinct	-11.3593
▁northwest	-11.3593
▁predator	-11.3594
illo	-11.3597
▁Fall	-11.3597
▁Mai	-11.3598
rite	-11.36
▁belonged	-11.3602
▁Wu	-11.3603
▁critic	-11.3608
Lo	-11.3608
▁Jordan	-11.3609
▁confusion	-11.361
▁fancy	-11.3611
▁dimensional	-11.3614
▁Test	-11.3621
▁lasting	-11.3621
▁Vin	-11.3623
▁ambassador	-11.3625
▁controversial	-11.3625
▁temporarily	-11.3625
▁conservative	-11.3625
▁flies	-11.3626
▁mutation	-11.3626
▁warming	-11.3627
ej	-11.3628
▁Prior	-11.363
cca	-11.3631
▁Pour	-11.3634
▁Photo	-11.3635
▁regulation	-11.3636
▁Georgia	-11.3638
▁controller	-11.364
race	-11.364
▁shield	-11.3641
▁mammal	-11.3641
▁Natural	-11.3641
▁Official	-11.3641
▁difficulties	-11.3652
▁Ron	-11.3657
▁dopamine	-11.3657
▁Animal	-11.3657
▁Psych	-11.3657
▁barrel	-11.3658
▁creep	-11.3658
▁chop	-11.367
NS	-11.3672
▁steak	-11.3673
▁horizontal	-11.3675
▁jewelry	-11.3675
boy	-11.3675
▁Tommy	-11.3675
▁acted	-11.3677
rio	-11.3679
olone	-11.368
▁fella	-11.3681
▁vegetable	-11.3686
▁(16	-11.3687
▁Language	-11.369
▁Occupation	-11.369
▁Release	-11.369
▁virtually	-11.369
▁AD	-11.3693
▁bonds	-11.3694
▁pra	-11.3696
ush	-11.3699
▁homework	-11.3699
▁creature	-11.3703
▁complexity	-11.3703
▁exploit	-11.3704
▁assembly	-11.3706
▁pioneer	-11.3706
▁Auto	-11.3707
▁hoped	-11.3707
spiration	-11.3711
▁meter	-11.3711
media	-11.3712
▁AI	-11.3713
▁Wild	-11.3713
FC	-11.3721
▁legislation	-11.3722
▁Seoul	-11.3722
▁Dy	-11.3722
▁pizza	-11.3722
▁1953	-11.3723
▁ownership	-11.3724
▁stamp	-11.3725
▁pharmaceutical	-11.3727
▁mechanisms	-11.3738
▁coconut	-11.3738
▁characteristic	-11.3738
▁wheat	-11.3739
▁distress	-11.3739
▁Movement	-11.3742
▁strict	-11.3743
oi	-11.3744
SS	-11.3746
lect	-11.3747
▁lamp	-11.3749
7%	-11.3753
meth	-11.3754
▁1947	-11.3756
▁pale	-11.376
▁Ng	-11.3761
▁candidates	-11.3763
▁blast	-11.3763
▁ST	-11.3765
▁tablets	-11.3765
▁mag	-11.3766
▁gi	-11.3766
▁Total	-11.377
▁52	-11.3771
▁obstacle	-11.3771
ending	-11.3772
▁cheer	-11.3772
▁Wy	-11.378
▁drying	-11.3782
▁beg	-11.3784
lop	-11.3784
▁Pope	-11.3786
▁flame	-11.3789
▁Mama	-11.3792
▁Qa	-11.3794
▁moisturizer	-11.3794
▁Turkish	-11.3795
▁Chen	-11.3796
▁connecting	-11.3796
▁landing	-11.3801
▁wherever	-11.3803
▁warn	-11.3804
▁Tea	-11.3807
▁curl	-11.3807
unk	-11.3808
▁experimental	-11.3808
▁Similarly	-11.381
▁Jon	-11.3811
▁asthma	-11.3812
▁managing	-11.3812
▁10%	-11.3812
▁buyer	-11.3813
▁dial	-11.3814
▁partially	-11.3816
▁Nan	-11.3818
▁variant	-11.382
▁José	-11.382
▁posted	-11.3821
▁Operation	-11.3821
▁Def	-11.3822
▁aimed	-11.3822
▁freeze	-11.3824
▁Half	-11.3827
▁pencil	-11.3829
▁restaurants	-11.383
▁glyc	-11.3831
▁(11	-11.3831
▁attempting	-11.3835
▁enzymes	-11.3836
▁formerly	-11.3836
▁reliable	-11.3836
▁43	-11.3838
▁Glo	-11.3838
fri	-11.3839
▁politicians	-11.3841
▁clouds	-11.3841
▁dropping	-11.3841
▁alpha	-11.3841
▁praise	-11.3844
▁Beat	-11.3847
▁crops	-11.3847
▁monitoring	-11.3848
▁Monte	-11.3848
▁800	-11.385
from	-11.3851
heat	-11.3851
▁Mount	-11.3853
stein	-11.3859
▁stack	-11.3859
SD	-11.386
ndi	-11.3867
▁behavioral	-11.3869
Al	-11.3875
Le	-11.3876
▁confess	-11.3881
RS	-11.3884
▁helicopter	-11.3886
▁ceiling	-11.3886
▁condom	-11.3888
▁Gun	-11.3891
▁Mass	-11.3891
lai	-11.3892
▁germ	-11.3896
imp	-11.39
▁influential	-11.3902
▁practicing	-11.3902
▁competing	-11.3902
▁ankle	-11.3904
▁Dong	-11.3905
▁von	-11.3907
▁600	-11.3908
▁copper	-11.3908
▁Anne	-11.3911
rag	-11.3912
▁restricted	-11.3913
therapy	-11.3914
▁fleet	-11.3915
▁Making	-11.3915
tory	-11.3915
▁Atlantic	-11.3919
▁fracture	-11.3919
▁twelve	-11.3919
▁mysterious	-11.3919
▁summit	-11.3919
atur	-11.3922
▁Clark	-11.3923
▁Morgan	-11.3923
▁Austria	-11.3928
Go	-11.3929
300	-11.3933
▁Belgium	-11.3936
▁Prepare	-11.3936
owa	-11.3938
▁Ladies	-11.3938
lica	-11.394
52	-11.3941
▁hosted	-11.3944
▁graphic	-11.3947
▁provinces	-11.3948
▁Brian	-11.3948
▁envelope	-11.3952
▁smiling	-11.3952
▁stiff	-11.3953
▁purple	-11.3953
lac	-11.3955
▁Snow	-11.3961
▁(15	-11.3964
jan	-11.3965
▁fragment	-11.3969
▁possibilities	-11.3969
▁pleasant	-11.3969
▁invention	-11.3969
▁bearing	-11.397
▁flows	-11.397
▁47	-11.3974
▁liar	-11.3975
▁Notice	-11.3976
▁Along	-11.3981
▁recovered	-11.3981
rating	-11.3983
▁competitor	-11.3985
▁Swiss	-11.3986
▁rats	-11.399
▁Motor	-11.3992
▁Him	-11.3992
▁calculate	-11.3993
▁mice	-11.3994
▁belonging	-11.3994
ethyl	-11.3995
▁thrown	-11.3996
▁Mind	-11.4001
▁destination	-11.4002
▁illusion	-11.4002
▁hitting	-11.4003
▁lens	-11.4004
▁boom	-11.4005
▁Amy	-11.4011
asi	-11.4012
▁abandon	-11.4013
▁Executive	-11.4019
▁Advance	-11.4019
▁garment	-11.4019
▁Norway	-11.402
▁prim	-11.4021
▁Bab	-11.4021
▁emissions	-11.4021
iyah	-11.4024
▁measurements	-11.4025
▁scenes	-11.4029
▁magazines	-11.4032
nto	-11.4033
▁Bueno	-11.4036
anda	-11.4038
▁amongst	-11.4041
▁escaped	-11.4041
▁Examples	-11.4046
cop	-11.4047
dine	-11.4047
nti	-11.4048
▁Brad	-11.4049
▁criticized	-11.4049
That	-11.4049
▁nerves	-11.4052
▁Eventually	-11.4052
▁Ukraine	-11.4052
▁debris	-11.4053
▁facilitate	-11.4054
wen	-11.4056
▁bay	-11.4056
ME	-11.406
▁torture	-11.4061
ega	-11.4065
▁Vas	-11.4067
▁emotionally	-11.4068
▁Trinidad	-11.4069
▁cruel	-11.4071
▁Lower	-11.4072
▁simultaneously	-11.4072
terior	-11.4076
▁salad	-11.4076
▁consumed	-11.4077
char	-11.4077
▁Point	-11.4077
dio	-11.4079
▁offend	-11.408
formerly	-11.4082
▁displayed	-11.4083
▁traits	-11.4083
▁lact	-11.4086
▁Chrome	-11.4086
▁malaria	-11.4086
▁Certain	-11.4086
▁mor	-11.4089
▁Rather	-11.409
▁chill	-11.4095
▁tender	-11.4102
▁mushroom	-11.4103
▁skull	-11.4103
▁carbohydrates	-11.4104
▁defect	-11.4104
▁Knight	-11.4104
▁triple	-11.4108
▁briefly	-11.4113
▁bush	-11.4115
▁aspirin	-11.4115
▁filed	-11.4115
▁Plant	-11.4116
▁treasure	-11.412
▁bronze	-11.412
▁flaw	-11.4121
▁wounded	-11.4126
▁Quang	-11.4127
▁Actor	-11.4128
▁herbs	-11.4133
▁scholars	-11.4134
▁Commonwealth	-11.4137
cry	-11.4137
▁beam	-11.4139
▁bowel	-11.414
▁ir	-11.414
▁assessment	-11.4142
▁targeted	-11.4144
▁judges	-11.4147
craft	-11.4148
bacter	-11.4153
ego	-11.4153
▁SD	-11.4156
▁youngest	-11.4157
▁100,000	-11.4158
▁subtle	-11.4158
▁incorporate	-11.4162
▁workplace	-11.4162
▁induced	-11.4164
▁reset	-11.4165
▁betray	-11.4166
Why	-11.417
▁(8	-11.4172
▁males	-11.4174
▁Tower	-11.4176
▁variations	-11.4177
ON	-11.4179
▁elderly	-11.4182
PP	-11.4183
▁Cru	-11.4185
▁lotion	-11.4187
▁Political	-11.4188
▁modified	-11.4188
Me	-11.4189
▁Cop	-11.4189
ré	-11.419
▁Aim	-11.4191
▁headaches	-11.4191
▁50%	-11.4192
▁$3	-11.4194
▁circles	-11.4195
53	-11.4197
▁variation	-11.4198
bby	-11.4203
▁authors	-11.4203
lish	-11.4204
▁compatible	-11.4205
▁revenge	-11.4205
▁guidelines	-11.4205
▁Actress	-11.4205
▁sovereignty	-11.4206
▁generic	-11.4206
▁serum	-11.4207
▁nutrition	-11.421
space	-11.4213
▁Leader	-11.4215
ben	-11.4218
▁hence	-11.4218
life	-11.4218
▁mentor	-11.4219
break	-11.4219
▁boiling	-11.422
▁developers	-11.4221
▁obligation	-11.4222
▁lately	-11.4222
eno	-11.4223
▁Ang	-11.4224
gua	-11.4228
▁comic	-11.4229
▁Album	-11.4239
AM	-11.4239
SI	-11.4243
▁newspapers	-11.4245
▁worm	-11.4249
▁72	-11.425
▁Doc	-11.4252
▁chick	-11.4255
version	-11.4255
▁measurement	-11.4258
▁Carlos	-11.4259
▁44	-11.4259
▁adaptation	-11.4262
▁traditions	-11.4265
▁Kai	-11.4269
cke	-11.4269
9%	-11.4272
▁fossil	-11.4273
▁integrated	-11.4273
▁ginger	-11.4274
▁kissing	-11.4276
▁failing	-11.4276
▁corresponding	-11.4277
▁convicted	-11.4279
oh	-11.4287
▁relaxing	-11.4288
nish	-11.4289
▁Chandler	-11.429
▁Eccellenza	-11.429
▁exploration	-11.429
▁width	-11.429
▁Miller	-11.4291
▁scholarship	-11.4291
▁Kevin	-11.4291
▁announcement	-11.4292
▁communications	-11.4298
▁healthier	-11.43
▁margin	-11.43
▁invade	-11.4301
▁Rico	-11.4302
▁ox	-11.4302
▁Ari	-11.4305
▁loyal	-11.4306
worth	-11.4307
come	-11.4309
▁Wolf	-11.431
▁SP	-11.431
▁consent	-11.4311
▁redness	-11.4311
▁Heat	-11.4314
▁Guy	-11.4316
▁concentrate	-11.4316
▁plea	-11.432
▁votes	-11.4322
▁rocket	-11.4323
▁exercising	-11.4325
▁garage	-11.4325
mina	-11.4325
▁wider	-11.4326
▁rude	-11.4326
▁Much	-11.4328
▁emit	-11.4334
org	-11.4336
▁Comm	-11.4336
▁Bir	-11.4339
▁amateur	-11.4342
▁slept	-11.4343
▁grip	-11.4344
▁bang	-11.4344
▁genuine	-11.4347
▁Flu	-11.435
▁hop	-11.435
▁bark	-11.435
▁Fund	-11.435
aria	-11.4353
▁dominated	-11.4355
▁Nobel	-11.4356
▁PlayStation	-11.4359
▁Lou	-11.436
▁dys	-11.4363
▁Woman	-11.4363
▁lighting	-11.4365
▁equality	-11.4369
▁statistics	-11.4371
say	-11.4372
▁emerging	-11.4377
▁satisfied	-11.4377
▁theoretical	-11.4377
▁accessible	-11.438
▁reforms	-11.4381
▁footage	-11.4384
osphere	-11.4386
▁safer	-11.4388
▁mucus	-11.4395
▁whip	-11.4395
▁erase	-11.4398
41	-11.4403
▁sentences	-11.4407
▁Wind	-11.441
▁basketball	-11.4412
▁Visit	-11.4412
▁bored	-11.4413
wise	-11.4413
▁coral	-11.4413
1%	-11.4414
▁Large	-11.4417
▁Helen	-11.4417
▁Poly	-11.4417
▁construct	-11.4418
lio	-11.442
OP	-11.4423
▁(12	-11.4426
script	-11.4426
▁mud	-11.4429
▁particle	-11.4429
▁banned	-11.443
ching	-11.4431
tana	-11.4431
▁Abu	-11.4432
▁spine	-11.4436
▁Hope	-11.4436
▁supportive	-11.4438
▁46	-11.4438
▁eliminated	-11.4438
▁assassin	-11.4442
orn	-11.4443
▁sexually	-11.4444
▁crawl	-11.4446
▁consequence	-11.4447
▁Billboard	-11.4447
▁sessions	-11.4448
▁persist	-11.4449
▁iOS	-11.4449
▁documentary	-11.4451
uter	-11.4452
ctic	-11.4454
▁hunter	-11.4459
▁norm	-11.446
▁acetate	-11.446
▁breasts	-11.4464
▁cardio	-11.4464
▁Rinse	-11.4464
▁southeast	-11.4465
▁contribution	-11.4465
▁southwest	-11.4472
▁odds	-11.4474
▁Seek	-11.4475
▁affecting	-11.4478
while	-11.4479
▁negotiations	-11.448
▁Communication	-11.4481
▁achieving	-11.4481
▁Argentine	-11.4481
▁surrender	-11.4481
▁Connect	-11.4482
▁sperm	-11.4482
And	-11.4483
▁shops	-11.4484
▁sole	-11.4485
▁manual	-11.4486
▁honestly	-11.4495
▁Develop	-11.4497
▁Syn	-11.4498
▁slope	-11.4499
▁convey	-11.4499
▁Islamic	-11.4502
ński	-11.4505
▁BBC	-11.4506
▁fade	-11.4506
vice	-11.4508
▁cue	-11.4509
gil	-11.451
▁Aires	-11.451
▁prostate	-11.4511
▁traditionally	-11.4512
▁Lock	-11.4513
▁Rad	-11.4514
▁engineers	-11.4516
▁calculation	-11.4516
▁metaphor	-11.4517
▁Decide	-11.4517
▁Side	-11.4517
▁ranging	-11.4519
▁Anyone	-11.4522
ifies	-11.4526
gni	-11.4526
▁orbits	-11.4527
▁repeatedly	-11.4531
▁conquer	-11.4534
▁Jobs	-11.4534
▁Carolina	-11.4535
rium	-11.4535
▁retreat	-11.4536
▁scholar	-11.4536
▁Kal	-11.4536
fr	-11.4537
▁rotation	-11.454
▁Alpha	-11.4541
▁translate	-11.4544
▁threaten	-11.4551
▁Usually	-11.4552
▁metabolite	-11.4552
▁stairs	-11.4552
▁detention	-11.4554
col	-11.4555
▁bud	-11.4556
city	-11.4561
▁nickname	-11.4569
▁Guess	-11.457
▁Express	-11.457
udi	-11.4584
▁Ran	-11.4584
▁neo	-11.4585
▁genome	-11.4587
▁Settings	-11.4587
▁nitrogen	-11.4587
▁drew	-11.4587
▁enabled	-11.4588
▁cinema	-11.4588
▁horn	-11.459
▁Stalin	-11.4591
▁passionate	-11.4591
▁div	-11.4591
▁expanding	-11.4594
▁compromise	-11.4597
▁landed	-11.4597
▁observer	-11.4601
▁consuming	-11.4605
▁tobacco	-11.4605
▁calculated	-11.4614
▁investigate	-11.4615
▁reject	-11.4619
▁legitimate	-11.4623
▁globe	-11.4623
▁incentive	-11.4623
▁hydrated	-11.4624
▁wrapped	-11.4624
▁jumping	-11.4625
▁worrying	-11.4625
▁activate	-11.4628
roid	-11.4628
▁fried	-11.463
▁Fat	-11.4634
▁Sciences	-11.4636
▁Fan	-11.4639
▁Hollywood	-11.464
▁refrigerator	-11.464
▁poems	-11.4642
▁murderer	-11.4646
▁proceeding	-11.4648
▁Download	-11.4649
▁outlet	-11.465
▁lawyers	-11.4651
TS	-11.4651
sey	-11.4656
▁Mayor	-11.4657
://	-11.4658
▁indigenous	-11.4658
▁Julie	-11.466
▁dough	-11.4661
▁activated	-11.4666
▁passive	-11.4667
▁propose	-11.4669
▁Tru	-11.4671
▁sim	-11.4671
▁dryer	-11.4672
elo	-11.4672
▁defensive	-11.4676
▁elephant	-11.4676
▁Sierra	-11.4676
ession	-11.4679
hole	-11.4682
▁Cass	-11.4684
▁sec	-11.4685
▁Emily	-11.4685
▁Flo	-11.4687
▁bucks	-11.4688
▁Esp	-11.469
bag	-11.4692
▁250	-11.4692
▁contributions	-11.4693
▁Merc	-11.4694
▁Nathan	-11.4694
▁indicator	-11.4694
▁operator	-11.4695
shing	-11.4695
▁polymer	-11.4696
▁fusion	-11.4697
▁Bru	-11.4701
▁Irish	-11.4713
▁1000	-11.4713
▁min	-11.4714
▁marker	-11.4715
▁Tour	-11.4716
▁cube	-11.4716
▁diplomat	-11.4716
▁porn	-11.4721
▁valve	-11.4722
▁disagree	-11.4724
:30	-11.4724
▁adapted	-11.4728
▁genital	-11.473
▁Double	-11.473
▁evaluation	-11.473
▁duties	-11.473
▁expenses	-11.4731
▁chess	-11.4734
rina	-11.4734
adi	-11.4734
▁41	-11.4736
though	-11.4736
▁Hotel	-11.4736
▁Indo	-11.4741
▁tremendous	-11.4748
▁Jacob	-11.4748
▁sheep	-11.4748
aught	-11.4749
▁Gulf	-11.4749
▁cooler	-11.4751
igo	-11.4751
▁scream	-11.4752
▁Stan	-11.4758
static	-11.4764
▁Olsztyn	-11.4766
▁deficiency	-11.4766
▁epidemic	-11.4766
▁answered	-11.4767
▁productivity	-11.4768
▁binary	-11.4768
▁Stick	-11.4769
▁Kind	-11.4769
▁candy	-11.4769
▁acceptance	-11.477
eur	-11.4776
▁Based	-11.4779
▁Bull	-11.4781
▁HCMC	-11.4784
▁thrill	-11.4784
▁Television	-11.4784
▁jack	-11.4784
▁Lega	-11.479
lid	-11.4793
▁reinforce	-11.4796
▁Evan	-11.4798
▁dizziness	-11.4802
▁matrix	-11.4802
▁suburb	-11.4802
▁stalk	-11.4803
▁assertive	-11.4804
HA	-11.4805
Mi	-11.4806
▁considerable	-11.4807
case	-11.4811
▁Self	-11.4811
▁potato	-11.4815
▁sponsor	-11.4815
▁precisely	-11.4816
▁flew	-11.4821
▁Fight	-11.4828
▁stressful	-11.4828
▁irritate	-11.4831
▁tide	-11.4831
▁donor	-11.4835
shot	-11.4836
▁Tran	-11.4836
▁bench	-11.4837
mming	-11.4837
▁losses	-11.4838
▁Conference	-11.4838
▁gratitude	-11.4838
▁perfume	-11.4838
▁greet	-11.4838
▁carrot	-11.4838
▁pronunciation	-11.4838
▁Excel	-11.4839
▁Chart	-11.484
▁Services	-11.4845
Wi	-11.4845
▁Ward	-11.4847
▁Congo	-11.4851
lone	-11.4852
▁photographs	-11.4854
responsibilities	-11.4856
▁residue	-11.4856
▁jerk	-11.4857
▁Mah	-11.4857
▁GB	-11.4858
▁foster	-11.4858
▁Clar	-11.4859
▁upgrade	-11.486
▁Ow	-11.4861
▁sy	-11.4862
▁crust	-11.4863
RP	-11.4863
▁Shall	-11.4864
▁Rou	-11.4864
▁Artist	-11.4866
front	-11.4869
▁je	-11.4871
▁flo	-11.4872
▁freely	-11.4874
▁cardiovascular	-11.4875
▁sacred	-11.4875
▁thread	-11.4875
▁inhibitors	-11.4876
▁Moreover	-11.4876
▁hurting	-11.4879
IP	-11.488
kel	-11.4892
▁satisfy	-11.4893
▁zinc	-11.4893
▁songwriter	-11.4893
▁bulk	-11.4894
▁Around	-11.4895
▁agenda	-11.4895
▁inhale	-11.49
ichi	-11.4906
▁Player	-11.4906
▁bitter	-11.4908
▁Lincoln	-11.4911
▁Luis	-11.4911
▁ultimate	-11.4917
▁armor	-11.4921
▁colonial	-11.4923
▁Forest	-11.4925
▁rays	-11.4925
▁elbow	-11.4929
▁balloon	-11.4931
▁thermal	-11.4931
▁junk	-11.4931
▁spice	-11.4932
▁Johnny	-11.4935
▁Sie	-11.4935
▁Chu	-11.4936
▁Sad	-11.4936
▁Micro	-11.4936
▁Touch	-11.4937
▁overwhelming	-11.4938
▁insane	-11.4944
▁tent	-11.4946
▁easiest	-11.4948
▁http	-11.4948
▁Furthermore	-11.4948
▁paragraph	-11.4949
▁Carter	-11.4956
ii	-11.4957
▁stating	-11.4957
▁mL	-11.4958
▁Lang	-11.4959
CR	-11.4959
▁treaty	-11.496
▁Especially	-11.4966
▁debuted	-11.4966
▁hobby	-11.4967
▁dawn	-11.4967
▁tolerate	-11.4968
▁gathered	-11.4968
▁MA	-11.4973
▁drivers	-11.4974
▁Zero	-11.4976
There	-11.4977
▁Kor	-11.4977
▁bury	-11.4978
▁libraries	-11.4985
▁Article	-11.4985
▁Indeed	-11.4985
▁Ltd	-11.4988
▁socks	-11.499
▁Ford	-11.4996
CH	-11.4997
phan	-11.4999
▁responded	-11.5001
▁Ker	-11.5002
▁Tomorrow	-11.5003
▁authentic	-11.5003
▁manipulate	-11.5003
bri	-11.5003
▁anime	-11.5004
▁1951	-11.5004
▁coastal	-11.5006
▁seventh	-11.5011
▁savings	-11.5013
▁Sergeant	-11.5021
▁Vitamin	-11.5021
▁Wednesday	-11.5021
▁vector	-11.5022
▁patrol	-11.5022
post	-11.5022
▁urgent	-11.5022
▁coworker	-11.5023
▁artery	-11.5025
▁SA	-11.5026
▁elder	-11.5031
▁FC	-11.5032
▁Carr	-11.5034
▁beaten	-11.5036
wick	-11.504
▁Wikipedia	-11.504
▁soften	-11.5042
▁strangers	-11.505
▁designation	-11.5052
▁snacks	-11.5055
keeper	-11.5056
▁accomplished	-11.5058
▁Ambassador	-11.5059
▁abdomen	-11.5059
▁celebration	-11.5059
▁flexible	-11.5059
CT	-11.5061
▁Mario	-11.5061
▁labeled	-11.5063
▁implementation	-11.5065
TE	-11.5072
ffe	-11.5075
▁ester	-11.5076
▁Ted	-11.5077
▁advisor	-11.5077
▁generous	-11.5077
▁bucket	-11.5079
dzi	-11.5081
▁Medal	-11.5082
RO	-11.5083
▁Sab	-11.5084
▁govern	-11.5084
▁carries	-11.5089
▁spinal	-11.509
▁detergent	-11.5096
▁grace	-11.5097
ature	-11.5101
▁Wan	-11.5102
rich	-11.5105
▁coverage	-11.5105
▁lightly	-11.511
azepam	-11.5111
▁serotonin	-11.5114
▁unhealthy	-11.5114
▁Scotland	-11.5114
▁fry	-11.5115
▁tray	-11.5118
▁sadness	-11.5121
▁Cole	-11.5121
▁cru	-11.5123
▁pyr	-11.5123
▁sustain	-11.5126
yard	-11.513
▁lend	-11.513
▁explosive	-11.5133
▁guidance	-11.5133
▁accidentally	-11.5137
ista	-11.5139
▁Fun	-11.5142
▁accounting	-11.5143
pathy	-11.5143
▁kin	-11.5144
just	-11.5148
▁temper	-11.5151
stream	-11.5151
rough	-11.5152
▁decay	-11.5152
▁mining	-11.5153
▁Chamber	-11.5153
▁mechanic	-11.5155
▁shallow	-11.5157
▁chin	-11.5158
▁Week	-11.5161
▁concentrated	-11.5161
EG	-11.5167
▁intentions	-11.5168
▁Forces	-11.517
▁baseball	-11.5173
▁graphics	-11.518
▁focuses	-11.518
▁hips	-11.518
hara	-11.5183
▁Mountains	-11.5184
▁Exercise	-11.5189
▁Hannah	-11.5189
▁Hawaii	-11.5189
▁shout	-11.5191
▁consistently	-11.5193
▁slot	-11.5197
▁shine	-11.5204
▁goat	-11.5207
▁destiny	-11.5208
▁Madrid	-11.5208
▁isolation	-11.5209
▁conservation	-11.521
▁1938	-11.521
▁Islam	-11.5211
PS	-11.5211
▁heir	-11.5211
▁attach	-11.5212
owice	-11.5213
liv	-11.5214
LE	-11.5215
▁hung	-11.5215
oso	-11.5215
▁sometime	-11.5217
main	-11.5219
▁staring	-11.522
▁peripheral	-11.5227
▁telenovela	-11.5227
▁delicate	-11.5227
▁drift	-11.5227
▁overseas	-11.5227
▁dressing	-11.5229
fold	-11.5229
▁CIA	-11.5231
▁unfortunately	-11.5233
▁terror	-11.5234
▁Rand	-11.5235
MD	-11.5236
nin	-11.5243
cision	-11.5246
▁analyst	-11.5246
▁ministry	-11.5246
▁Computer	-11.5246
▁Airport	-11.5248
▁variables	-11.5248
▁dwell	-11.5248
bou	-11.525
▁poster	-11.5259
▁waited	-11.5259
▁planting	-11.5264
▁entertain	-11.5265
▁behaviour	-11.5265
▁Rich	-11.5266
▁Garden	-11.5267
▁Xbox	-11.5267
▁Child	-11.5267
ality	-11.5268
▁assure	-11.5269
group	-11.5269
▁UV	-11.527
▁surprising	-11.5272
▁mixing	-11.5277
▁nut	-11.528
▁abortion	-11.5284
▁railway	-11.5285
▁Isabel	-11.5285
▁Roy	-11.5286
▁Almost	-11.5287
▁couch	-11.5288
▁mum	-11.5288
▁sustained	-11.5288
400	-11.5289
▁planted	-11.5289
▁Regional	-11.5289
plat	-11.5302
Ba	-11.5302
▁Cultural	-11.5303
▁brutal	-11.5305
▁cleaned	-11.5306
▁platforms	-11.5308
▁progressive	-11.5311
mir	-11.5313
ddy	-11.5314
lau	-11.5317
▁graduating	-11.5322
▁magnesium	-11.5322
▁Oxford	-11.5322
▁parasite	-11.5322
▁besides	-11.5326
▁crop	-11.5328
▁partly	-11.5329
▁manifest	-11.5332
▁kindness	-11.5333
clock	-11.5337
▁originated	-11.534
▁unconscious	-11.5341
▁Simply	-11.5341
▁voltage	-11.5341
▁Shu	-11.5342
6,000	-11.5345
▁refugees	-11.5347
▁embarrassed	-11.5347
vian	-11.5348
▁magical	-11.5348
51	-11.535
▁handsome	-11.5351
woman	-11.5352
▁acceptable	-11.5354
own	-11.5354
▁venue	-11.536
▁pesticide	-11.536
dam	-11.5361
▁loyalty	-11.5362
▁fertilizer	-11.5365
▁51	-11.5368
▁Wang	-11.5376
▁Feel	-11.5377
▁implant	-11.538
hydrate	-11.5383
cco	-11.5388
▁rolling	-11.5394
▁disappointed	-11.5394
▁demo	-11.5394
▁prototype	-11.5399
▁empathy	-11.5399
▁Alice	-11.54
▁washed	-11.5406
lder	-11.5408
iana	-11.5409
▁Venezuelan	-11.5411
▁Sounds	-11.5414
▁nomination	-11.5414
berry	-11.5415
▁collecting	-11.5416
▁Doug	-11.5417
▁migraine	-11.5418
▁predominant	-11.5418
▁suspicious	-11.5418
▁pneumonia	-11.5418
▁Really	-11.5418
▁accent	-11.5418
▁Eddie	-11.5418
▁conversion	-11.5419
▁impressive	-11.5419
Ha	-11.5422
▁Silesian	-11.5423
▁celebrated	-11.5423
IA	-11.5423
▁Susan	-11.5424
▁requested	-11.5426
zie	-11.543
▁Vu	-11.543
IT	-11.5435
▁dental	-11.5438
aged	-11.5444
▁beast	-11.5444
800	-11.5452
issa	-11.5456
▁Matthew	-11.5456
▁Portugal	-11.5456
▁grief	-11.5456
▁forehead	-11.5457
▁thigh	-11.5457
▁Gor	-11.5461
▁ancestors	-11.5468
▁Pete	-11.5469
▁sealed	-11.5471
▁Bou	-11.5471
▁corrupt	-11.5473
▁Yi	-11.5475
▁certificate	-11.5476
▁Ethiopia	-11.5476
▁convenient	-11.5476
▁geometry	-11.5476
▁sensitivity	-11.5476
▁Hitler	-11.5477
▁constitutional	-11.5479
lier	-11.5479
▁Kate	-11.5483
▁Story	-11.5487
range	-11.5489
▁Hit	-11.5492
▁Anton	-11.5492
ume	-11.5493
▁enforce	-11.5494
▁accompany	-11.5495
▁discrimination	-11.5495
▁thrive	-11.5495
▁Believe	-11.5495
▁atom	-11.5496
▁penalty	-11.5496
▁magnet	-11.5497
▁mint	-11.5499
▁Country	-11.55
▁hello	-11.5501
▁pointing	-11.5502
▁minority	-11.5502
ago	-11.5505
▁worthy	-11.5505
▁Sports	-11.5505
rest	-11.5509
▁Sony	-11.5513
▁accumulate	-11.5514
▁constipation	-11.5514
▁encouraging	-11.5514
▁technological	-11.5514
▁costume	-11.5516
▁Explorer	-11.5516
▁pinch	-11.5516
▁CPU	-11.5517
current	-11.5518
mura	-11.5528
▁Representative	-11.5534
▁horror	-11.5534
▁comprise	-11.5534
▁Building	-11.5536
▁glow	-11.5538
▁creator	-11.5538
udge	-11.5541
MO	-11.5544
Hey	-11.5551
▁masses	-11.5552
▁Together	-11.5553
▁explode	-11.5553
▁quantities	-11.5553
▁ham	-11.5555
▁woke	-11.5557
▁gaining	-11.5558
▁disturb	-11.556
▁Gon	-11.5563
▁Kir	-11.5569
still	-11.557
▁orbital	-11.5571
▁criteria	-11.5573
▁hybrid	-11.5573
▁mall	-11.5573
▁whale	-11.5574
uke	-11.5576
▁caring	-11.5579
▁Steven	-11.5592
kha	-11.5592
▁ointment	-11.5593
▁steer	-11.5593
▁knight	-11.5593
▁Mur	-11.5593
▁airplane	-11.5594
én	-11.5595
uv	-11.5595
▁Iranian	-11.5598
▁Papa	-11.5611
▁Picture	-11.5612
▁assemble	-11.5612
▁cheaper	-11.5615
▁Venus	-11.5616
▁sulfate	-11.5618
▁enjoying	-11.5619
▁reserve	-11.5622
▁Qua	-11.5623
▁pores	-11.5623
▁Slow	-11.5626
▁Record	-11.5628
▁verbal	-11.563
ily	-11.5631
▁FIFA	-11.5632
▁Taylor	-11.5632
▁tendency	-11.5633
▁visa	-11.5635
lee	-11.5636
▁heroes	-11.5637
▁Damn	-11.5639
dale	-11.564
▁ft	-11.5644
▁appearing	-11.5645
ender	-11.5649
▁allergies	-11.5651
▁fantasy	-11.5651
▁intravenous	-11.5651
▁situated	-11.5651
▁forecast	-11.5652
▁Donald	-11.5652
▁pleased	-11.5656
▁Chang	-11.5657
▁Corn	-11.5657
▁char	-11.566
▁seller	-11.5662
▁voted	-11.5665
▁Dal	-11.567
▁virgin	-11.5671
▁altitude	-11.5671
▁macro	-11.5673
bia	-11.5675
SH	-11.5676
▁androgen	-11.5689
MC	-11.5689
▁Hunt	-11.5691
▁Consult	-11.5691
▁rebuild	-11.5691
▁Flor	-11.5691
▁publish	-11.5691
▁legally	-11.5695
▁rack	-11.5699
▁attain	-11.5709
▁separation	-11.5711
▁Dream	-11.5711
▁Won	-11.5711
▁craving	-11.5711
An	-11.5716
▁Season	-11.5719
▁floating	-11.5723
▁fastest	-11.5724
▁pigs	-11.5724
▁reef	-11.5724
▁yo	-11.5729
▁dual	-11.573
▁submit	-11.573
▁dessert	-11.5731
▁susceptible	-11.5731
▁Stephen	-11.5731
▁descent	-11.5732
that	-11.5732
▁tutor	-11.5733
▁1918	-11.5733
▁cleared	-11.5734
▁advised	-11.5736
▁sweating	-11.5742
▁siblings	-11.5745
CP	-11.575
▁soluble	-11.575
mission	-11.5751
▁salmon	-11.5752
▁View	-11.5754
▁Liber	-11.5756
▁overwhelmed	-11.5757
▁pest	-11.5766
▁53	-11.5766
▁Clinton	-11.577
▁timing	-11.5771
▁stool	-11.5772
▁Szczecinek	-11.5773
rip	-11.5774
omb	-11.5774
▁Leon	-11.5774
▁hint	-11.5775
▁Greg	-11.5776
▁Pie	-11.5777
▁inventory	-11.5777
▁longest	-11.5781
▁Ball	-11.5782
LL	-11.5783
▁workshop	-11.579
▁grey	-11.5791
▁inject	-11.5791
▁1937	-11.5793
source	-11.5794
▁onset	-11.5794
▁unlock	-11.5796
uru	-11.5799
▁Columbia	-11.581
▁equipped	-11.581
▁Nahiyah	-11.581
▁peanut	-11.5811
▁mount	-11.5813
▁Sudan	-11.5814
▁Israeli	-11.5815
▁pause	-11.5815
▁Java	-11.5816
▁jury	-11.5817
▁56	-11.5821
▁cookies	-11.5823
lick	-11.5826
SL	-11.5827
▁wallet	-11.5829
▁airline	-11.5829
▁microwave	-11.583
▁grape	-11.583
▁transmitted	-11.5831
▁colleague	-11.5832
▁Action	-11.5832
▁Card	-11.5833
▁AR	-11.5836
▁Production	-11.5838
▁Milk	-11.5843
▁expose	-11.5845
▁Spec	-11.5849
▁optical	-11.5849
▁colony	-11.5849
▁sweep	-11.585
▁downstairs	-11.585
▁PDF	-11.5851
▁tennis	-11.5851
lace	-11.5852
▁bugs	-11.5854
▁CH	-11.5855
plant	-11.5857
bur	-11.5857
▁Field	-11.5858
▁Glad	-11.5859
lessness	-11.5861
▁0.1	-11.5862
▁solved	-11.5865
lift	-11.587
▁vampire	-11.5871
▁Hiro	-11.5872
▁Thought	-11.5875
▁Unit	-11.5876
ij	-11.5878
▁Fish	-11.5879
▁Rec	-11.5881
kie	-11.5887
▁favour	-11.589
▁altogether	-11.5891
▁unhappy	-11.5891
▁caution	-11.5891
▁Lay	-11.5899
▁internationally	-11.5901
▁profession	-11.5901
▁distinguished	-11.5902
▁Barb	-11.5904
▁estimates	-11.5904
▁packed	-11.5906
▁Same	-11.5907
▁rag	-11.5909
cite	-11.5911
toxic	-11.5912
▁Pot	-11.5917
▁VI	-11.5918
▁fame	-11.5922
▁95	-11.5923
▁Grant	-11.5926
▁float	-11.5927
▁Bern	-11.5927
▁nucleus	-11.5931
▁fraud	-11.5931
▁Sleep	-11.5932
▁photographer	-11.5935
▁cattle	-11.5936
▁Neo	-11.5939
▁por	-11.5942
▁Hero	-11.5945
▁achievements	-11.595
brand	-11.5951
EN	-11.5951
▁delicious	-11.5951
▁sweetheart	-11.5951
▁orientation	-11.5951
▁senator	-11.5952
▁predicted	-11.5952
Th	-11.5953
▁persistent	-11.5953
▁1936	-11.5954
▁slaves	-11.5958
▁Given	-11.5959
▁sang	-11.5963
plication	-11.5965
▁incorporated	-11.5966
▁AC	-11.5969
imo	-11.597
▁multiply	-11.5972
pine	-11.5973
hua	-11.5974
Bo	-11.5979
▁formulation	-11.598
▁accepting	-11.5983
▁severely	-11.5987
▁poorly	-11.5988
▁completing	-11.5992
▁Gordon	-11.5992
▁damaging	-11.5992
▁Silver	-11.5994
▁Delta	-11.5997
▁wealthy	-11.5998
Pro	-11.6001
▁broth	-11.6003
▁cyto	-11.6005
2,000	-11.6005
▁beard	-11.6006
bian	-11.6008
▁locate	-11.6008
founded	-11.6011
▁Energy	-11.6013
▁unnecessary	-11.6013
▁Account	-11.6013
▁patron	-11.6015
▁highway	-11.6018
▁flee	-11.6021
pur	-11.6022
▁20%	-11.6025
▁49	-11.6028
▁Sto	-11.6028
▁Marshal	-11.6029
▁advise	-11.603
▁Working	-11.6031
hon	-11.6031
▁similarly	-11.6032
▁anticipate	-11.6033
▁iTunes	-11.6033
▁imperial	-11.6033
▁Gabriel	-11.6033
▁Phase	-11.6035
▁oxide	-11.6036
▁Tech	-11.6038
▁hydr	-11.6039
▁chu	-11.604
ograph	-11.6042
▁dimensions	-11.6043
▁reportedly	-11.6044
▁Howard	-11.6046
▁Eight	-11.6048
▁intent	-11.6048
▁lime	-11.6048
imate	-11.6049
▁tense	-11.6051
ppy	-11.6051
▁signing	-11.6053
▁bare	-11.6053
DR	-11.6053
▁benzodiazepine	-11.6054
▁piercing	-11.6054
▁emphasis	-11.6054
▁franchise	-11.6054
▁participating	-11.6054
▁jelly	-11.6054
NE	-11.6055
▁Bruce	-11.6056
hard	-11.6061
▁functioning	-11.6063
rice	-11.6066
▁kicked	-11.6067
▁hated	-11.6068
▁lawn	-11.6071
▁discourage	-11.6074
▁freezing	-11.6074
▁tightly	-11.6075
Da	-11.6077
▁Titan	-11.6077
▁avoided	-11.6081
▁toxicity	-11.6082
▁formally	-11.6086
▁Personal	-11.6089
▁quest	-11.6091
wind	-11.6092
▁blowing	-11.6094
▁satisfaction	-11.6095
▁Senior	-11.6095
▁mortality	-11.6096
▁discount	-11.6096
azole	-11.61
▁Area	-11.6102
hum	-11.6103
▁Ferr	-11.6105
jin	-11.6107
▁Rod	-11.611
▁Gh	-11.6114
▁frustrated	-11.6115
▁absorption	-11.6115
lement	-11.6119
▁illustrate	-11.6122
▁bride	-11.6123
▁Winter	-11.6123
▁jumped	-11.6125
▁Pl	-11.613
ffer	-11.6131
▁logical	-11.6135
▁neighbour	-11.6136
▁Instagram	-11.6136
▁indicating	-11.6136
▁Premier	-11.6136
▁yeast	-11.6137
▁sulfur	-11.6137
▁Normal	-11.6139
▁1919	-11.614
▁coward	-11.6147
▁Aw	-11.6148
▁Duc	-11.615
▁Yama	-11.6154
uro	-11.6157
▁Einstein	-11.6157
▁Peruvian	-11.6157
▁describing	-11.6158
▁groom	-11.6159
biotic	-11.616
▁unclear	-11.6161
▁Base	-11.6165
zh	-11.6166
▁blown	-11.6166
▁reside	-11.6172
▁Wales	-11.6173
▁loaded	-11.6175
▁Koszalin	-11.6177
▁therapeutic	-11.6177
▁diagram	-11.6177
▁cereal	-11.6177
▁firing	-11.6179
▁Thanh	-11.6179
▁sprint	-11.618
▁Rif	-11.618
usa	-11.618
▁Made	-11.6184
▁Quin	-11.6184
▁rail	-11.6185
▁seizures	-11.6187
ód	-11.6188
ike	-11.619
▁diagnose	-11.6193
▁Date	-11.6196
▁discussing	-11.6197
▁Pokémon	-11.6198
▁diminish	-11.6198
▁thirty	-11.6198
▁Stadium	-11.6198
▁phenomena	-11.6198
▁funded	-11.6198
▁monarch	-11.6198
▁reminder	-11.62
isan	-11.6202
▁PM	-11.6205
▁handled	-11.6209
▁prey	-11.621
▁Sang	-11.6216
▁Color	-11.6216
▁expressing	-11.6216
▁widow	-11.6219
▁bait	-11.6225
▁54	-11.6226
▁transformed	-11.6227
zza	-11.6229
▁Cent	-11.623
▁Nico	-11.6232
▁ray	-11.6234
▁Going	-11.6234
fasci	-11.6234
▁Allen	-11.6235
wie	-11.6235
▁Dry	-11.6237
▁nano	-11.6238
▁accelerate	-11.624
▁sur	-11.624
▁sunscreen	-11.624
▁logged	-11.6241
▁cheating	-11.6241
▁riot	-11.6241
▁grams	-11.6243
▁approaching	-11.6247
▁2.5	-11.6247
▁bleed	-11.6251
RT	-11.626
▁quantity	-11.6261
▁Pharmaceutical	-11.6261
▁regain	-11.6261
▁Magazine	-11.6261
▁aloe	-11.6266
▁Sport	-11.6269
▁Lev	-11.627
▁tit	-11.6273
▁retailer	-11.6274
▁Dog	-11.6275
ody	-11.6279
▁resembles	-11.6279
iter	-11.628
▁worries	-11.6282
▁spoil	-11.6282
▁legacy	-11.6283
▁packaging	-11.6283
▁Lab	-11.6283
mpo	-11.6291
ML	-11.6294
▁Lie	-11.6296
hai	-11.6297
▁asset	-11.6301
▁wasting	-11.6302
▁deficit	-11.6303
▁Hindu	-11.6303
▁razor	-11.6303
▁steep	-11.6303
▁farmer	-11.6305
nov	-11.6311
▁depict	-11.6312
▁Ap	-11.6313
When	-11.6313
hur	-11.6316
▁prediction	-11.6316
▁Jar	-11.6319
NO	-11.6322
▁Jersey	-11.6324
▁neglect	-11.6324
▁pursuit	-11.6324
▁submarine	-11.6324
▁fifteen	-11.6324
▁affinity	-11.6324
▁cartoon	-11.6324
▁Freedom	-11.6324
▁Hungary	-11.6325
▁Return	-11.6326
▁vera	-11.6327
▁5,000	-11.6328
▁elect	-11.633
ogenic	-11.6334
▁recommendations	-11.6337
▁powered	-11.6338
▁passenger	-11.634
▁Pod	-11.6344
▁oriented	-11.6345
▁thyroid	-11.6345
▁tolerance	-11.6345
▁pronounced	-11.6346
▁Karl	-11.635
▁flirt	-11.6356
▁tire	-11.6356
▁Corps	-11.6362
▁UEFA	-11.6366
▁yourselves	-11.6366
▁sprout	-11.6366
▁shelf	-11.637
▁slavery	-11.637
ffi	-11.637
Di	-11.6372
▁embarrassing	-11.6375
▁Grab	-11.6379
▁manufacture	-11.6381
lag	-11.6381
▁Bachelor	-11.6387
▁likelihood	-11.6387
▁Accept	-11.6388
▁Dead	-11.6388
▁cyclo	-11.6389
▁monk	-11.6393
▁poisoning	-11.6395
GA	-11.6398
▁chew	-11.64
▁distracted	-11.6403
ended	-11.6406
▁crater	-11.6406
▁emission	-11.6407
▁implemented	-11.6407
▁Rica	-11.6407
▁Enterprise	-11.6408
▁utility	-11.6408
▁detained	-11.6409
▁yöu	-11.6409
▁beverages	-11.6409
▁Lagos	-11.6409
▁distort	-11.6409
▁Ultra	-11.6409
▁Arctic	-11.6409
▁Winner	-11.6411
▁Drop	-11.6414
▁Jose	-11.6417
▁Round	-11.6417
▁screening	-11.6419
▁setup	-11.643
▁3,000	-11.6431
▁referring	-11.6432
moto	-11.6434
▁informal	-11.6434
▁Tsu	-11.644
▁permanently	-11.644
▁prolonged	-11.6443
▁Lip	-11.6443
tinib	-11.645
▁Jen	-11.645
▁deter	-11.6451
▁medieval	-11.6451
▁Jake	-11.6454
ander	-11.6455
cillin	-11.6458
(	-11.6461
stick	-11.6461
▁darker	-11.6463
▁planetary	-11.6463
▁Daily	-11.6464
▁terrorism	-11.6465
▁expense	-11.6471
▁hygiene	-11.6472
▁integration	-11.6472
▁algae	-11.6473
▁chasing	-11.6474
▁reserves	-11.6477
CL	-11.6482
▁Might	-11.6483
OL	-11.6485
▁Joy	-11.6485
▁selfish	-11.6486
▁invested	-11.6492
▁anonymous	-11.6494
▁escort	-11.6494
▁martial	-11.6494
▁Alliance	-11.6494
▁Include	-11.6494
▁merger	-11.6494
▁accordance	-11.6494
▁lobby	-11.6494
▁imaging	-11.6495
▁drone	-11.6495
▁practically	-11.6496
▁Mau	-11.6501
▁0.5	-11.6503
▁Mia	-11.6503
Upon	-11.6504
▁Generally	-11.6505
▁Bush	-11.6506
▁maid	-11.6506
▁dr	-11.6511
▁Dai	-11.6511
far	-11.6514
▁portray	-11.6515
▁elevation	-11.6515
▁migration	-11.6515
▁apology	-11.6516
▁scope	-11.6516
bone	-11.6518
▁Diego	-11.6518
lateral	-11.6519
▁halfway	-11.6529
▁yell	-11.653
arco	-11.6531
ckle	-11.6531
▁horizon	-11.6535
▁beside	-11.6536
▁arthritis	-11.6537
▁cartridge	-11.6537
▁blew	-11.6537
▁allergy	-11.6537
▁animation	-11.6537
▁alternate	-11.6537
▁racing	-11.6539
▁conviction	-11.654
▁Harris	-11.6542
▁alleged	-11.6547
▁imagined	-11.6548
▁exclusively	-11.6554
▁dignity	-11.6558
▁voting	-11.6558
▁Observ	-11.6559
▁Mine	-11.656
cum	-11.656
▁dislike	-11.6562
▁restored	-11.6562
urge	-11.6562
▁fist	-11.6562
▁hatch	-11.6564
▁Currently	-11.6565
▁probe	-11.657
▁Cher	-11.657
▁consecutive	-11.658
▁unpleasant	-11.658
▁bilateral	-11.658
▁labour	-11.6582
▁Kara	-11.6582
▁LA	-11.6586
▁Jason	-11.6588
▁sto	-11.6592
▁tragedy	-11.6602
▁Website	-11.6602
▁Remind	-11.6602
▁ashamed	-11.6602
wy	-11.6602
CN	-11.6603
▁textbook	-11.6604
ante	-11.6604
▁EP	-11.6605
nese	-11.6606
▁Bang	-11.6611
▁achievement	-11.6612
▁sap	-11.6613
▁divorced	-11.662
▁updated	-11.6622
▁nearest	-11.6622
▁Disease	-11.6623
▁Contact	-11.6623
▁stitch	-11.6625
▁PLA	-11.6628
▁Clay	-11.6632
escent	-11.6633
ér	-11.6636
▁herbal	-11.6639
▁CT	-11.6642
▁Apparently	-11.6645
▁alphabet	-11.6645
▁inflation	-11.6645
▁jazz	-11.6645
▁Natal	-11.6651
▁Gene	-11.6656
▁ji	-11.6657
▁partition	-11.6659
▁Jay	-11.6663
slav	-11.6665
▁bargain	-11.6667
▁elimination	-11.6667
▁sketch	-11.6667
▁orchestra	-11.6667
▁Denmark	-11.6667
▁climbing	-11.6669
▁imprisoned	-11.6672
▁tourism	-11.6672
4)	-11.6674
▁Industrial	-11.6677
▁lice	-11.6677
cup	-11.6679
▁toxins	-11.6683
▁reflected	-11.6687
▁pulmonary	-11.6689
▁significance	-11.6689
▁toothpaste	-11.6689
▁sheriff	-11.6689
▁assuming	-11.6689
▁antidepressant	-11.6689
▁defence	-11.669
▁insect	-11.6691
▁concerning	-11.6692
▁starring	-11.6696
▁basin	-11.6701
▁Sound	-11.6702
▁mob	-11.6705
▁slower	-11.6707
▁Staff	-11.6708
▁equi	-11.6709
▁restrain	-11.6711
▁blogger	-11.6712
▁petition	-11.6712
▁instruction	-11.6717
▁Lil	-11.6718
▁offense	-11.6719
▁Champions	-11.6719
▁quad	-11.6722
▁Need	-11.6724
▁Bac	-11.6724
▁Deb	-11.6725
▁Justin	-11.6725
▁Log	-11.6725
▁crowned	-11.6726
▁Ecuador	-11.6731
▁Walker	-11.6732
▁opioid	-11.6732
▁sleeve	-11.6732
▁contradict	-11.6732
▁crab	-11.6736
▁requir	-11.6737
ota	-11.6738
▁donation	-11.6743
▁patches	-11.6746
▁loosen	-11.6748
▁county	-11.6749
▁cab	-11.6749
▁Viet	-11.675
tail	-11.6751
lite	-11.6752
▁impressed	-11.6752
▁homo	-11.6754
▁addresses	-11.6754
▁automatic	-11.6754
▁Catherine	-11.6754
▁antihistamine	-11.6754
▁menstrual	-11.6754
▁utilize	-11.6754
▁Samsung	-11.6755
▁neural	-11.6755
▁Fellow	-11.6755
▁responding	-11.6756
▁brew	-11.6756
▁baked	-11.6758
▁boundary	-11.6758
▁Binh	-11.6759
zel	-11.6762
▁followers	-11.6765
▁instant	-11.6771
▁Carol	-11.6771
▁Bear	-11.6772
▁Bishop	-11.6776
▁predecessor	-11.6776
▁intestine	-11.6777
▁gal	-11.6779
▁Case	-11.6781
DP	-11.6781
▁banking	-11.6781
who	-11.6789
▁flowing	-11.679
New	-11.6796
▁Off	-11.6797
▁sedative	-11.6799
▁heritage	-11.6799
▁(14	-11.6799
▁Mega	-11.6799
urinary	-11.6799
▁Persian	-11.6799
▁archive	-11.6802
link	-11.6803
▁HT	-11.6803
▁Wayne	-11.6804
▁fleas	-11.6806
▁Yoshi	-11.681
▁Mak	-11.6818
mino	-11.682
▁collaborate	-11.6821
▁contributing	-11.6821
▁sediment	-11.6821
▁impulse	-11.6821
▁Install	-11.6821
▁chef	-11.6822
▁Judge	-11.6822
▁Print	-11.6824
▁addressed	-11.6827
▁arrange	-11.6833
▁disputed	-11.6836
guard	-11.6837
▁dissolve	-11.6839
▁emperor	-11.6843
▁purchasing	-11.6843
▁wrinkle	-11.6843
pac	-11.6844
▁dramatically	-11.6844
▁summon	-11.6845
▁font	-11.6845
▁underwear	-11.6846
▁Nine	-11.685
▁Hank	-11.6855
▁NA	-11.6857
PO	-11.6859
▁Near	-11.6861
▁chromosome	-11.6865
▁cooperate	-11.6865
▁sophisticated	-11.6865
▁Ancient	-11.6865
▁blur	-11.6865
▁delegate	-11.6865
▁supermarket	-11.6865
▁shaving	-11.6866
▁Alan	-11.6867
▁screwed	-11.6872
▁Vel	-11.6872
▁eh	-11.6873
900	-11.6873
▁Maz	-11.6873
ault	-11.6875
▁Jeff	-11.6875
▁Format	-11.6879
▁uncertain	-11.6886
▁Limit	-11.6887
▁Community	-11.6887
▁unwanted	-11.6887
▁pimple	-11.6887
▁chaos	-11.689
▁handful	-11.6892
pid	-11.6893
▁Turk	-11.6894
equen	-11.6894
▁roller	-11.6895
▁stepped	-11.6896
▁triggered	-11.6901
▁mosquito	-11.6903
▁atomic	-11.6908
▁stab	-11.6908
▁administer	-11.6909
▁elastic	-11.691
▁wavelength	-11.691
▁expertise	-11.6911
▁thermo	-11.6911
▁smallest	-11.6911
count	-11.6912
enberg	-11.6913
operative	-11.6914
jun	-11.6918
▁Ryan	-11.6919
▁investing	-11.6924
▁claiming	-11.6929
▁Philip	-11.6932
▁Industry	-11.6932
▁bachelor	-11.6932
▁helium	-11.6932
▁Crown	-11.6933
▁Genesis	-11.6933
▁dock	-11.6938
▁57	-11.6938
▁Mountain	-11.6938
▁Intel	-11.694
▁thy	-11.6941
▁counsel	-11.6941
▁Box	-11.6944
▁Mali	-11.6945
▁Pad	-11.6948
▁85	-11.6948
PL	-11.6949
▁conclude	-11.6951
▁hypothesis	-11.6954
▁reception	-11.6954
▁severity	-11.6954
▁ammonia	-11.6954
▁Engineering	-11.6954
▁sponge	-11.6954
▁readily	-11.6956
▁Bud	-11.6957
▁betrayed	-11.6963
▁pupil	-11.6963
IM	-11.6975
▁Fantasy	-11.6977
▁intermediate	-11.6977
▁stimulation	-11.6977
▁disability	-11.6981
▁varying	-11.699
▁devoted	-11.6991
▁ruined	-11.6991
▁placebo	-11.6994
▁bribe	-11.6996
▁1900	-11.6997
▁strongest	-11.6997
▁bake	-11.6999
trans	-11.6999
▁humanitarian	-11.6999
▁nursing	-11.7
lice	-11.7001
▁artwork	-11.7003
▁ripe	-11.7008
▁Upper	-11.701
lab	-11.7015
▁PA	-11.7015
OT	-11.7016
rgic	-11.7016
▁Leo	-11.7017
▁lt	-11.7018
▁Mode	-11.7019
8,000	-11.7019
▁municipal	-11.702
▁delayed	-11.702
▁merchant	-11.7022
▁scroll	-11.7022
▁ambition	-11.7022
▁poke	-11.7022
▁chunk	-11.7023
▁drainage	-11.7026
▁Pap	-11.7026
▁Walt	-11.7029
▁portal	-11.7032
▁thief	-11.7045
▁mercy	-11.7045
illi	-11.7047
▁dated	-11.7048
▁PhD	-11.7053
yama	-11.7054
▁Seem	-11.7058
▁AU	-11.7058
▁activation	-11.7059
▁screaming	-11.7062
▁imposed	-11.7062
▁Beau	-11.7065
▁Neu	-11.7066
▁frustration	-11.7067
▁physicist	-11.7067
▁offensive	-11.7067
▁Pretty	-11.7067
▁roast	-11.7068
▁Link	-11.7069
▁digestive	-11.7069
▁limitations	-11.7069
▁colonies	-11.7069
▁Eating	-11.707
▁Shan	-11.7077
▁Austrian	-11.7077
▁immigrants	-11.7078
▁rumors	-11.7079
▁honored	-11.708
▁tier	-11.7081
▁aired	-11.7081
▁mainland	-11.7082
▁Oil	-11.7083
▁Der	-11.7083
▁cooling	-11.7084
▁DC	-11.7086
▁Different	-11.709
▁Galaxy	-11.709
▁Capital	-11.709
▁forcing	-11.709
▁cleanser	-11.7093
▁Tonight	-11.7093
▁centered	-11.7095
▁Sul	-11.71
▁Burn	-11.7106
▁Villa	-11.7107
▁180	-11.7108
lap	-11.7111
▁Alfred	-11.7113
▁Increase	-11.7113
▁Pennsylvania	-11.7113
▁configuration	-11.7113
▁swollen	-11.7113
▁Provide	-11.7113
▁wagon	-11.7114
▁spacecraft	-11.7115
▁Taka	-11.7115
▁spit	-11.7117
▁Mini	-11.7118
▁quo	-11.7123
▁Sales	-11.7131
▁Mao	-11.7132
▁modeling	-11.7135
ñ	-11.7135
▁sticking	-11.7136
▁Choszczno	-11.7136
▁Phoebe	-11.7136
▁arguing	-11.7136
▁conceal	-11.7136
▁Observatory	-11.7136
▁GPS	-11.7138
▁(/	-11.7139
▁Nature	-11.7143
rance	-11.7143
▁Knowing	-11.7149
dynamic	-11.715
▁Bow	-11.7151
uf	-11.7152
▁dull	-11.7154
▁Product	-11.7155
▁prohibit	-11.7155
▁Twenty	-11.7159
▁believing	-11.7159
▁integrity	-11.7159
▁surviving	-11.7159
▁frost	-11.7159
▁midnight	-11.7159
▁Arabia	-11.716
▁knot	-11.716
stead	-11.7161
▁restart	-11.7166
▁mistaken	-11.7168
dou	-11.7169
onian	-11.7177
▁Emil	-11.7179
▁initiated	-11.718
uli	-11.7181
vu	-11.7181
▁contrary	-11.7181
▁determining	-11.7181
▁occupy	-11.7181
▁Vienna	-11.7181
▁obesity	-11.7181
▁Student	-11.7182
RM	-11.7182
▁Naka	-11.7185
▁Fab	-11.7186
▁Gui	-11.7188
▁loser	-11.7188
▁membership	-11.7191
▁Face	-11.7193
▁breakup	-11.7194
▁dietary	-11.7194
▁modest	-11.7195
▁peri	-11.7196
▁Gy	-11.7196
▁vest	-11.7197
▁exhaust	-11.7204
▁remedies	-11.7204
▁racial	-11.7205
▁IBM	-11.7205
▁Cecil	-11.7206
▁firmly	-11.7216
▁listened	-11.7219
▁ignored	-11.7219
▁Beach	-11.7223
▁farming	-11.7226
▁administrator	-11.7228
▁institute	-11.7228
▁pursuing	-11.7228
▁ridge	-11.7228
▁Haiti	-11.7228
▁specified	-11.7229
▁capability	-11.7229
▁adoption	-11.7233
world	-11.7242
▁Sn	-11.7247
▁supplier	-11.7251
▁cited	-11.7251
▁Nepal	-11.7251
▁Anderson	-11.7251
▁lad	-11.7251
▁Single	-11.7254
▁gallon	-11.7256
▁respectful	-11.7257
▁photography	-11.7257
▁Liz	-11.726
uka	-11.7262
▁fitting	-11.7263
▁pasta	-11.7263
▁breeding	-11.7265
▁surround	-11.7265
cci	-11.7271
▁Symptoms	-11.7274
▁diagnostic	-11.7274
▁hypertension	-11.7274
▁bloom	-11.7274
▁skirt	-11.7274
▁bundle	-11.7274
▁tackle	-11.7274
▁applies	-11.7275
▁hostile	-11.7277
▁alright	-11.7277
▁challenged	-11.7279
▁edit	-11.7281
▁slim	-11.7282
▁Perry	-11.7285
▁declined	-11.7289
▁88	-11.7289
▁positively	-11.7291
throp	-11.7291
heim	-11.7291
lude	-11.7293
▁transmit	-11.7293
por	-11.7296
▁prevented	-11.7297
▁Mercury	-11.7297
▁embedded	-11.7297
▁turkey	-11.7297
▁soccer	-11.7297
▁batteries	-11.7298
▁Leonard	-11.7298
▁politically	-11.7298
▁Cruz	-11.7302
Ho	-11.7304
She	-11.7311
▁Emma	-11.7314
fur	-11.7314
iac	-11.7315
Mar	-11.7319
▁basket	-11.732
▁Manhattan	-11.732
▁acquisition	-11.732
▁ambulance	-11.732
▁judicial	-11.732
▁feather	-11.732
▁motive	-11.7322
▁digging	-11.7323
▁obsessed	-11.7328
▁lyrics	-11.7328
▁Yan	-11.7329
▁Cle	-11.7333
▁preserved	-11.7336
iro	-11.7339
▁consisted	-11.734
▁Virgin	-11.7341
▁attributed	-11.7344
▁promising	-11.7344
▁Sheriff	-11.7344
▁disgust	-11.7344
▁Lewis	-11.7344
▁pirate	-11.7345
▁hamster	-11.7345
oka	-11.7346
▁audition	-11.7348
▁Said	-11.735
EE	-11.7352
▁confrontation	-11.7352
▁clam	-11.7353
▁exert	-11.7354
▁Stark	-11.7355
▁Classic	-11.7355
▁ortho	-11.736
▁sack	-11.7363
dec	-11.7364
▁dehydration	-11.7367
▁metabolic	-11.7367
▁breach	-11.7367
▁Past	-11.7367
▁adjustment	-11.7368
▁harassment	-11.7368
▁Treatment	-11.7371
▁Hyper	-11.7371
▁linguistic	-11.7372
▁Hunter	-11.7373
▁Aunt	-11.7373
7,000	-11.7379
known	-11.738
▁Deng	-11.7381
▁interacting	-11.7385
▁AM	-11.7385
▁61	-11.739
▁elaborate	-11.739
▁kilo	-11.7391
▁Yang	-11.7394
Br	-11.7394
gnan	-11.7397
▁headline	-11.74
WA	-11.7403
TH	-11.7403
But	-11.7404
hou	-11.7407
ffin	-11.7407
about	-11.741
▁Dynasty	-11.7414
▁Literature	-11.7414
▁Napoleon	-11.7414
▁practitioner	-11.7414
▁alleviate	-11.7414
▁spike	-11.7415
▁1928	-11.7417
▁shipping	-11.7419
action	-11.7424
▁broker	-11.7427
rrh	-11.7428
typical	-11.743
▁establishing	-11.7436
▁Shanghai	-11.7437
▁fascinating	-11.7437
▁pledge	-11.7437
▁Maintain	-11.7438
▁Cloud	-11.7438
▁Parent	-11.7443
▁Learning	-11.7443
▁stew	-11.7444
▁useless	-11.7445
▁Pack	-11.7447
▁tetra	-11.7449
minating	-11.7452
▁lymph	-11.7452
▁relie	-11.7458
trophy	-11.7459
▁additive	-11.7461
▁consensus	-11.7461
▁excitement	-11.7461
▁identification	-11.7461
▁Magic	-11.7461
▁orchid	-11.7462
▁bedtime	-11.7467
Ro	-11.7472
▁dorm	-11.7475
▁Ala	-11.7477
▁strictly	-11.7478
▁cy	-11.7479
▁Paulo	-11.748
gastrointestinal	-11.7485
▁Samuel	-11.7485
▁syrup	-11.7485
▁sentiment	-11.7485
▁Figure	-11.7485
▁vapor	-11.7485
▁Patrick	-11.7485
▁organism	-11.7493
▁investigated	-11.7495
▁praised	-11.7498
anti	-11.75
▁broader	-11.7502
▁contestant	-11.7502
▁Planet	-11.7505
▁Writing	-11.7508
▁aesthetic	-11.7508
▁persuade	-11.7508
▁whisper	-11.7508
▁amendment	-11.7508
▁almond	-11.7508
▁Nearby	-11.7509
▁Guinea	-11.7509
▁humidity	-11.7509
angle	-11.751
▁Electronic	-11.751
▁stellar	-11.7511
▁1935	-11.7511
▁identifying	-11.7512
▁Soak	-11.7521
▁endure	-11.7523
▁lightning	-11.7524
▁rotate	-11.7526
grade	-11.7528
▁cabin	-11.753
▁sup	-11.753
▁laying	-11.7532
▁bruise	-11.7532
▁syringe	-11.7532
▁capsule	-11.7532
fight	-11.7532
▁merged	-11.7532
Let	-11.7532
▁mimic	-11.7532
▁Finn	-11.7534
▁1929	-11.7535
▁orbiting	-11.7535
▁lifting	-11.7535
▁cellular	-11.7536
▁documented	-11.7542
▁preach	-11.7544
▁Milan	-11.7544
mount	-11.7548
▁Jong	-11.7549
burn	-11.7551
IV	-11.7552
▁acquire	-11.7554
▁virtue	-11.7556
▁Hungarian	-11.7556
▁epic	-11.7557
▁purse	-11.7557
▁psych	-11.7558
▁RAM	-11.7559
▁oversee	-11.756
▁bass	-11.7561
▁confession	-11.7563
hill	-11.7566
▁Jun	-11.7568
ulating	-11.7569
other	-11.7569
trial	-11.7571
▁inspire	-11.7578
▁Pomorski	-11.758
open	-11.758
▁leap	-11.7582
▁wondered	-11.7582
▁dissolved	-11.7583
▁700	-11.7592
▁developer	-11.7594
eptic	-11.7596
▁deadly	-11.7603
▁Traditional	-11.7604
▁embassy	-11.7604
▁propaganda	-11.7604
▁consistency	-11.7604
▁eleven	-11.7604
▁1933	-11.7606
▁dash	-11.7607
psy	-11.7611
▁protesters	-11.7612
▁Mum	-11.7619
▁Faculty	-11.7628
▁collision	-11.7628
▁conscience	-11.7628
▁penguin	-11.7628
▁Margaret	-11.7628
▁Mommy	-11.763
enter	-11.7635
hap	-11.7636
▁Lead	-11.7639
▁linger	-11.7642
▁diary	-11.7644
▁proton	-11.7646
▁Purchase	-11.7652
▁bicycle	-11.7652
▁implications	-11.7652
▁optimal	-11.7652
▁romance	-11.7652
▁Sweet	-11.7652
▁chemotherapy	-11.7652
▁hopefully	-11.7655
▁intact	-11.7657
▁Lisa	-11.7657
▁batch	-11.7661
▁flatter	-11.7661
▁badge	-11.7666
▁brushing	-11.7672
▁101	-11.7674
▁weaken	-11.7674
▁jungle	-11.7676
▁spontaneous	-11.7676
▁eager	-11.7676
▁68	-11.7678
▁fig	-11.7678
national	-11.7679
turn	-11.7689
ando	-11.769
▁warmer	-11.7692
▁handy	-11.7696
onium	-11.7697
▁Johannesburg	-11.77
▁Ukrainian	-11.77
▁comprehensive	-11.77
▁stubborn	-11.77
▁radar	-11.7701
▁shaking	-11.7701
▁Alright	-11.7705
▁technically	-11.7707
▁Xiao	-11.7711
▁fitness	-11.7714
▁sticky	-11.7714
num	-11.7714
▁Ul	-11.7715
cine	-11.7716
PG	-11.772
▁acidic	-11.772
▁Gran	-11.7722
▁atmospheric	-11.7724
▁junior	-11.7724
▁intensive	-11.7724
▁oppress	-11.7724
▁Disney	-11.7725
▁holy	-11.773
▁editing	-11.7733
corn	-11.7733
▁Ox	-11.7735
▁tang	-11.7737
▁sweetie	-11.7737
ethanol	-11.7737
▁Barr	-11.774
class	-11.7741
▁tomato	-11.7745
▁Beth	-11.7748
▁nephew	-11.7748
▁Salvador	-11.7748
▁flare	-11.7749
▁eighth	-11.775
▁Living	-11.7752
MT	-11.7752
▁Tang	-11.7753
▁locally	-11.7755
▁Glen	-11.7758
para	-11.7758
▁MB	-11.7759
opia	-11.776
▁Full	-11.7763
▁lane	-11.7764
pad	-11.7764
▁Masa	-11.7768
▁coping	-11.777
▁Ohio	-11.7773
▁equilibrium	-11.7773
▁expedition	-11.7773
▁abusive	-11.7773
▁1/4	-11.7773
▁array	-11.7773
▁anchor	-11.7774
▁uncertainty	-11.7775
▁Tibetan	-11.7776
▁tease	-11.7776
▁Pierre	-11.7776
▁Typically	-11.7778
▁occasional	-11.7779
▁altered	-11.7784
icular	-11.7785
▁Robin	-11.7785
▁heated	-11.7787
▁Treaty	-11.779
▁58	-11.7795
▁evolve	-11.7796
▁Kennedy	-11.7797
▁Philadelphia	-11.7797
▁adjacent	-11.7797
▁anesthetic	-11.7797
▁navigate	-11.7797
▁infrared	-11.7797
▁Scroll	-11.7797
spor	-11.7797
▁THE	-11.7797
▁vol	-11.7798
▁cruise	-11.7801
▁negatively	-11.7802
▁Marshall	-11.7802
▁62	-11.7803
▁Zen	-11.7805
▁Marcel	-11.7806
▁homeless	-11.7806
▁golf	-11.7812
▁heels	-11.7812
▁solely	-11.7815
cil	-11.7816
▁Protect	-11.7819
▁Gentlemen	-11.7822
▁iPod	-11.7822
▁dysfunction	-11.7822
qa	-11.7822
▁Savage	-11.7823
▁Oblast	-11.7823
▁1932	-11.7824
▁operational	-11.7826
idi	-11.7826
▁soothe	-11.7827
▁papa	-11.7828
▁Norman	-11.7829
▁armies	-11.783
▁val	-11.7832
etto	-11.7833
vac	-11.7844
▁precaution	-11.7846
▁welfare	-11.7846
▁glory	-11.7846
etta	-11.7846
▁governance	-11.7847
▁resolved	-11.7848
▁Davis	-11.785
▁knocked	-11.7852
▁Stock	-11.7852
▁bail	-11.7862
▁drip	-11.7864
▁sexuality	-11.7864
Yes	-11.7868
▁Marty	-11.7869
hong	-11.7869
▁Private	-11.7871
▁cemetery	-11.7871
▁luxury	-11.7871
▁Female	-11.7871
▁Barbara	-11.7871
▁Stargard	-11.7871
▁unsub	-11.7871
lene	-11.7872
▁glut	-11.7872
▁Fed	-11.7883
▁controversy	-11.7895
▁coalition	-11.7896
▁Saudi	-11.7898
▁Gua	-11.79
▁Lor	-11.7902
TO	-11.7908
▁underwater	-11.7909
▁Philippine	-11.7912
▁unemployment	-11.792
▁CYP	-11.792
▁cortex	-11.792
▁warfare	-11.792
▁inherent	-11.792
▁Chairman	-11.7922
▁upside	-11.7929
shima	-11.7931
▁bent	-11.7932
▁dive	-11.7935
fan	-11.7935
▁momentum	-11.7936
▁metric	-11.7939
▁Native	-11.7941
▁petroleum	-11.7945
▁prosperity	-11.7945
definite	-11.7945
▁sour	-11.7946
▁Ottoman	-11.7946
▁mainstream	-11.7946
▁organizing	-11.7946
▁RNA	-11.7949
type	-11.7952
▁quietly	-11.7955
▁inhibition	-11.7957
▁guessing	-11.7959
▁Whoa	-11.7961
correct	-11.7964
cou	-11.7968
▁Meta	-11.7968
flo	-11.7969
▁Episode	-11.7969
▁inequality	-11.7969
▁mattress	-11.7969
▁refresh	-11.7969
▁stabilize	-11.797
▁Visual	-11.797
▁determination	-11.797
▁curtain	-11.797
▁plaque	-11.7971
▁leverage	-11.7973
ducing	-11.7975
sław	-11.7977
▁detection	-11.7978
▁openly	-11.7979
FS	-11.7982
▁Hil	-11.7985
▁freezer	-11.7986
▁rust	-11.7987
hydro	-11.7991
▁Tibet	-11.7992
▁Buddha	-11.7994
▁suspicion	-11.7994
train	-11.7995
▁performer	-11.7995
▁burial	-11.7995
▁digest	-11.7997
▁elementary	-11.7999
▁flooding	-11.7999
▁researcher	-11.8
▁explaining	-11.8
▁Chuck	-11.8003
▁verb	-11.8006
weight	-11.8007
▁fond	-11.8008
▁Feed	-11.8011
▁Coll	-11.8012
▁bru	-11.8012
▁buck	-11.8013
feld	-11.8013
▁(13	-11.8014
writing	-11.8015
▁bypass	-11.8015
▁Massachusetts	-11.8019
▁Obviously	-11.8019
▁slaughter	-11.8019
▁tampon	-11.8019
▁Tanzania	-11.8019
▁bonus	-11.8019
▁scandal	-11.802
▁counterpart	-11.802
▁greenhouse	-11.8022
▁Cost	-11.8023
made	-11.8026
▁Leone	-11.8026
cien	-11.8027
▁scr	-11.8036
▁gases	-11.8037
▁perceive	-11.8044
▁arriving	-11.8044
▁unstable	-11.8044
▁adrenal	-11.8044
▁genus	-11.8044
▁thromb	-11.8044
▁Movie	-11.8046
▁downward	-11.8048
▁secured	-11.8049
▁distinctive	-11.8049
▁Pala	-11.805
▁Roma	-11.8061
▁catching	-11.8063
▁stretching	-11.8064
▁Male	-11.8068
▁antibacterial	-11.8069
▁investigating	-11.8069
▁sul	-11.807
▁await	-11.807
zon	-11.807
▁Bun	-11.8072
▁Temp	-11.8072
▁evolutionary	-11.8073
▁verse	-11.8073
▁forgiveness	-11.8075
fusion	-11.8077
ologies	-11.8078
▁churches	-11.8078
check	-11.8079
▁defending	-11.8089
million	-11.809
oku	-11.8093
▁psychiatrist	-11.8094
▁vigorous	-11.8094
▁snail	-11.8094
▁beloved	-11.8095
▁gaming	-11.8095
▁simulation	-11.8095
▁vault	-11.8095
▁Amanda	-11.8096
▁vague	-11.8096
▁frighten	-11.8097
▁Zone	-11.8097
▁chloro	-11.8097
cott	-11.8097
▁Annie	-11.8105
idal	-11.8107
▁Label	-11.8108
▁downtown	-11.8109
present	-11.8112
▁capitalism	-11.8116
▁supporters	-11.8116
▁frightened	-11.8118
▁drawer	-11.8119
▁exploring	-11.812
▁cultivate	-11.812
▁innovative	-11.812
▁essence	-11.812
▁ego	-11.812
▁submitted	-11.8121
▁bot	-11.8122
▁Martha	-11.8122
▁frog	-11.8123
▁revolutionary	-11.8125
▁mentally	-11.8125
▁denote	-11.8129
apa	-11.813
▁Pink	-11.813
▁canvas	-11.8131
▁Gau	-11.8133
firm	-11.8143
▁disturbance	-11.8146
▁northwestern	-11.8146
▁Sala	-11.815
icide	-11.815
▁BA	-11.815
▁Online	-11.8154
boo	-11.8157
DM	-11.8157
statin	-11.8158
▁globally	-11.8165
▁Admiral	-11.817
▁Belarus	-11.817
▁conjunction	-11.817
▁legislative	-11.817
▁plague	-11.8171
▁Happy	-11.8171
▁dismiss	-11.8173
Ex	-11.8178
▁enhanced	-11.8181
szcz	-11.8182
▁PS	-11.8188
▁$5	-11.819
▁Poznań	-11.8196
▁celebrity	-11.8196
▁disinfect	-11.8196
▁toothbrush	-11.8196
▁fridge	-11.8196
▁Jesse	-11.8196
▁foam	-11.8199
▁Bobby	-11.8199
▁slum	-11.8201
ente	-11.8202
▁Crime	-11.8208
▁spite	-11.8211
▁Colin	-11.8217
▁Por	-11.8217
clus	-11.8218
isse	-11.8219
usually	-11.8219
▁Hoa	-11.8221
▁Universal	-11.8221
▁accuracy	-11.8221
▁inevitable	-11.8221
▁integral	-11.8221
▁schizophrenia	-11.8221
▁jeans	-11.8221
▁kidnapped	-11.8222
▁finite	-11.8222
▁Temple	-11.8225
▁neighboring	-11.8225
arily	-11.8226
1,000	-11.823
▁hood	-11.823
▁taxi	-11.8232
▁ballet	-11.8241
▁heroin	-11.8244
▁Late	-11.8246
▁Sydney	-11.8247
▁Physical	-11.8247
▁kernel	-11.8247
▁miserable	-11.8247
▁nasty	-11.8247
▁saliva	-11.8248
▁Panama	-11.8248
▁Hydro	-11.8252
▁renal	-11.8259
▁timeline	-11.8259
▁sickness	-11.8261
▁Fil	-11.8269
hun	-11.8271
▁volcano	-11.8271
▁Neither	-11.8272
▁rebuilt	-11.8272
▁veteran	-11.8272
▁perimeter	-11.8272
▁peasant	-11.8272
▁haunt	-11.8273
▁Invest	-11.8273
▁Hawk	-11.8273
▁1934	-11.8275
▁priorities	-11.8275
section	-11.8277
chang	-11.8277
▁Chair	-11.8279
▁Organ	-11.8279
▁withdraw	-11.8285
ctiv	-11.8286
▁pyramid	-11.829
worker	-11.8295
▁historically	-11.8297
▁patience	-11.8298
▁soothing	-11.8298
▁Gently	-11.8298
▁Map	-11.8299
rack	-11.8301
wife	-11.8302
ée	-11.8308
bili	-11.8308
▁Homs	-11.8309
▁Drama	-11.8315
▁grav	-11.8318
Chinese	-11.832
new	-11.8321
▁reservoir	-11.8323
▁subsidiary	-11.8323
▁Hebrew	-11.8324
▁deciding	-11.8324
▁Drawsko	-11.8324
▁pancake	-11.8324
▁tendon	-11.8327
▁tile	-11.8328
▁businessman	-11.8331
▁switching	-11.8338
▁tighten	-11.8339
▁hardest	-11.8342
won	-11.8346
▁impress	-11.8346
▁Disc	-11.8348
▁Electric	-11.8349
▁Mediterranean	-11.8349
▁lawsuit	-11.8349
▁Junior	-11.8349
▁grasp	-11.8349
anga	-11.835
▁complement	-11.835
▁destroying	-11.835
▁1922	-11.8353
▁Stu	-11.8355
ró	-11.8358
standing	-11.836
▁Karen	-11.836
▁bombing	-11.8361
▁BCE	-11.8362
▁98	-11.8365
▁Gary	-11.8374
proof	-11.8375
▁aggression	-11.8375
▁gambling	-11.8375
▁gravitational	-11.8375
▁wildlife	-11.8376
▁stink	-11.8377
fore	-11.8378
▁tac	-11.8378
▁salary	-11.8379
MR	-11.838
▁attachment	-11.8381
▁tomatoes	-11.8382
▁stall	-11.8392
▁contraction	-11.8394
▁TB	-11.8398
▁Wol	-11.8398
▁sync	-11.8398
▁relegation	-11.8401
▁swab	-11.8401
▁cocaine	-11.8402
▁straighten	-11.8405
▁fairy	-11.8407
▁marking	-11.8414
▁approached	-11.8416
▁sue	-11.8418
▁jewel	-11.8419
▁downloaded	-11.8425
enburg	-11.8426
▁Lawrence	-11.8427
▁tragic	-11.8428
▁Antonio	-11.8428
▁permitted	-11.8429
▁lining	-11.8432
pop	-11.8433
▁Flash	-11.8435
GC	-11.8435
Ta	-11.8436
▁wander	-11.8449
▁credited	-11.8449
▁Gang	-11.8451
integrate	-11.8453
▁Arizona	-11.8453
▁Financial	-11.8453
▁hepatitis	-11.8453
▁computing	-11.8453
▁Further	-11.8453
▁cease	-11.8455
▁thinner	-11.8458
▁Naval	-11.8459
▁bur	-11.8461
ár	-11.8462
▁clove	-11.8464
▁numb	-11.8465
oxide	-11.8466
gene	-11.8468
gawa	-11.847
▁Palm	-11.847
▁skilled	-11.847
▁mama	-11.8477
▁Cool	-11.8478
▁Havana	-11.8479
▁congestion	-11.8479
▁erosion	-11.8479
▁Chronic	-11.8479
▁diplomacy	-11.8479
stress	-11.8481
▁1914	-11.8483
▁stereo	-11.8491
▁Somali	-11.8492
▁holder	-11.8493
▁Blu	-11.8498
terone	-11.8499
▁bun	-11.8502
On	-11.8502
▁announce	-11.8503
▁Mobile	-11.8505
▁Raymond	-11.8505
▁oatmeal	-11.8505
▁prosecutor	-11.8505
▁pseudo	-11.8505
▁template	-11.8506
▁Throughout	-11.8506
▁premiered	-11.8508
▁Mongolia	-11.8509
▁Guardian	-11.8511
▁Begin	-11.8512
▁relay	-11.8516
▁Mul	-11.8516
▁temp	-11.8516
ape	-11.852
▁Image	-11.8525
▁meantime	-11.8528
▁striking	-11.8532
▁aluminum	-11.8532
▁transparent	-11.8532
▁seemingly	-11.8532
▁Sean	-11.8532
▁Pablo	-11.8534
ulous	-11.8535
▁Jam	-11.8536
▁1912	-11.8537
▁Room	-11.8542
▁stove	-11.8542
▁tuna	-11.8545
▁Stein	-11.8547
iso	-11.8548
▁discontinued	-11.8548
▁lighten	-11.8549
▁Gram	-11.855
▁Mun	-11.855
▁coma	-11.8552
▁sensory	-11.8553
pie	-11.8554
▁immigration	-11.8558
▁conceive	-11.8558
▁infectious	-11.8558
▁waking	-11.8559
▁Push	-11.8561
▁derive	-11.8562
▁smarter	-11.8566
▁gaze	-11.857
▁independently	-11.8574
▁Mir	-11.8574
▁30%	-11.8576
▁Apart	-11.8577
▁Comb	-11.8577
▁corpse	-11.8578
▁Edit	-11.8581
lix	-11.8582
▁comparable	-11.8584
▁substrate	-11.8584
▁Toronto	-11.8584
▁Sportiva	-11.8584
▁Bolivia	-11.8585
▁friction	-11.8585
▁Zambia	-11.8585
▁Brit	-11.8588
▁factories	-11.859
▁separately	-11.8591
▁crushed	-11.8591
▁static	-11.8594
▁someday	-11.8595
▁enrolled	-11.8598
▁witnesses	-11.8603
▁Lance	-11.8605
▁recommendation	-11.8607
▁Beta	-11.8609
piece	-11.861
▁certified	-11.8611
▁comparing	-11.8611
▁silicon	-11.8611
▁smash	-11.8611
▁dilute	-11.8611
▁Palmer	-11.8611
umab	-11.8613
▁lump	-11.8616
%)	-11.8617
kon	-11.8622
▁flirting	-11.8624
▁consist	-11.8627
▁Laura	-11.8628
▁Silesia	-11.863
xia	-11.8635
amin	-11.8638
▁Harold	-11.8638
▁20,000	-11.8639
▁respective	-11.8641
3,000	-11.8643
▁Quick	-11.8643
color	-11.8644
trade	-11.8652
▁Sri	-11.8653
▁dimension	-11.8653
nova	-11.8655
▁Page	-11.8658
▁dan	-11.8658
▁Lind	-11.8659
▁Yellow	-11.8664
▁remedy	-11.8664
▁Technical	-11.8664
▁Florence	-11.8665
▁Zoo	-11.8666
▁59	-11.8675
kawa	-11.8676
▁interpreted	-11.8678
▁Mona	-11.8681
ków	-11.8687
▁SO	-11.8689
▁Stage	-11.869
▁Nevertheless	-11.8691
▁affiliate	-11.8691
▁completion	-11.8691
▁fragile	-11.8691
▁Forgive	-11.8691
▁typing	-11.8691
▁humble	-11.8692
▁hammer	-11.8692
▁Epi	-11.8695
▁gig	-11.8697
game	-11.8699
▁confirmation	-11.8699
zew	-11.8709
western	-11.8711
Video	-11.8716
▁Mesopotamia	-11.8717
▁transparency	-11.8717
▁analytic	-11.8717
▁computation	-11.8717
▁chlorine	-11.8717
▁Manager	-11.8717
▁gallery	-11.8718
▁ethical	-11.8718
▁wool	-11.8718
▁Throw	-11.8719
▁Metro	-11.8719
▁Finch	-11.872
▁1927	-11.8721
▁strap	-11.8721
▁neat	-11.8722
▁retained	-11.8722
▁Lima	-11.8726
night	-11.8729
▁Jr	-11.8729
▁compression	-11.8732
lumin	-11.8735
▁compact	-11.8735
ccu	-11.8737
▁Democrat	-11.8738
▁anesthesia	-11.8744
▁probability	-11.8744
▁puppies	-11.8744
▁gauge	-11.8744
▁NGO	-11.8744
▁Janeiro	-11.8744
▁Stefan	-11.8744
▁overdose	-11.8744
PE	-11.8748
▁Bird	-11.875
▁Franco	-11.8751
making	-11.8756
▁streaming	-11.8761
▁selecting	-11.8765
▁disadvantage	-11.8771
▁transcript	-11.8771
▁fortunate	-11.8771
▁compost	-11.8771
▁automobile	-11.8771
▁Airlines	-11.8771
▁Manuel	-11.8771
▁module	-11.8771
qi	-11.8772
▁swimmer	-11.8773
▁shorten	-11.8774
▁breakdown	-11.8774
▁scout	-11.8774
wash	-11.8777
▁halt	-11.8777
▁retro	-11.8781
Hi	-11.8782
dress	-11.8785
▁resident	-11.8788
▁flea	-11.8793
▁Offer	-11.8794
connect	-11.8797
▁cult	-11.8798
▁Athletic	-11.8798
▁Memorial	-11.8798
▁accommodate	-11.8798
▁closure	-11.8798
▁decreasing	-11.8798
▁dinosaur	-11.8798
▁encompass	-11.8798
▁evacuate	-11.8798
▁insomnia	-11.8798
▁Gallery	-11.8798
▁Monitor	-11.8798
▁Cambridge	-11.8798
▁varied	-11.8798
▁republic	-11.8799
EL	-11.8799
▁Fel	-11.8807
▁revise	-11.8811
▁lethal	-11.8811
▁Gla	-11.8812
▁Body	-11.8812
▁Clear	-11.8815
zzo	-11.8821
▁fin	-11.8825
▁Brooklyn	-11.8825
▁circum	-11.8825
▁declaration	-11.8825
▁librarian	-11.8825
▁manuscript	-11.8825
▁mercury	-11.8825
▁modification	-11.8826
▁echo	-11.883
▁Left	-11.8836
▁commercially	-11.8848
▁anemia	-11.8849
▁inappropriate	-11.8852
▁sequel	-11.8852
▁tweet	-11.8852
▁Relax	-11.8852
▁wives	-11.8852
▁Reduce	-11.8853
▁Cairo	-11.8854
▁90%	-11.8856
▁limiting	-11.8857
lina	-11.8861
▁Forum	-11.8862
▁consultant	-11.8862
▁wolf	-11.8864
▁rolled	-11.8865
NG	-11.8866
▁Abe	-11.8867
▁hosting	-11.8875
block	-11.8877
▁0.2	-11.8879
▁Benjamin	-11.8879
▁Ctrl	-11.8879
▁Subdistrict	-11.8879
▁congress	-11.8879
▁provincial	-11.8879
▁Challenge	-11.8879
▁introducing	-11.8879
▁Ei	-11.8879
▁Jerry	-11.8879
▁disabled	-11.8879
▁Semi	-11.888
▁Vincent	-11.888
▁Tyler	-11.8881
▁parliamentary	-11.8881
▁intersection	-11.8882
▁vow	-11.8883
▁talented	-11.8885
dog	-11.8891
▁statistical	-11.8893
▁pub	-11.8894
▁advertise	-11.8899
▁bore	-11.8901
▁imported	-11.8903
▁deadline	-11.8904
▁trainer	-11.8906
▁qualification	-11.8906
▁navigation	-11.8906
chemical	-11.8906
FF	-11.8917
▁instantly	-11.8921
▁brighter	-11.8931
▁Bulgaria	-11.8934
▁Nicholas	-11.8934
▁cosmetic	-11.8934
▁liberty	-11.8934
▁scissors	-11.8934
▁Legend	-11.8934
▁temptation	-11.8934
▁Underwood	-11.8935
▁denial	-11.8936
▁cargo	-11.8944
▁Prima	-11.8945
▁Mou	-11.8951
▁$4	-11.8952
aff	-11.8952
▁erect	-11.8953
▁$100	-11.8955
▁Canal	-11.8958
▁Linda	-11.8959
▁Majesty	-11.8961
▁bamboo	-11.8961
▁centimeter	-11.8961
▁citrus	-11.8961
▁resigned	-11.8961
▁auction	-11.8961
▁Kin	-11.8962
▁annoying	-11.8963
▁examined	-11.8964
▁NT	-11.8964
▁infect	-11.8969
▁shooter	-11.897
▁Putin	-11.8974
▁witnessed	-11.8974
▁conducting	-11.8976
good	-11.8978
▁rig	-11.8978
▁Feeling	-11.8979
oline	-11.8979
▁endless	-11.8979
bound	-11.898
▁extending	-11.8981
▁shortage	-11.8987
▁fibro	-11.8988
▁presidency	-11.8989
▁Nominated	-11.8989
▁pistol	-11.8989
▁marshal	-11.8989
▁coincidence	-11.8989
▁Darwin	-11.8989
▁Spray	-11.899
▁collapsed	-11.8991
▁refugee	-11.8991
▁hydroxy	-11.8991
▁1924	-11.8992
▁hub	-11.8994
▁systematic	-11.8994
▁pus	-11.8996
bird	-11.8996
▁Prze	-11.8996
▁1910	-11.8997
▁Nie	-11.9
vision	-11.9005
▁tailor	-11.9005
▁Aki	-11.9007
▁96	-11.9013
▁Associate	-11.9016
▁Jessica	-11.9016
▁nipple	-11.9016
▁ultra	-11.9016
▁grind	-11.9016
▁marrow	-11.902
▁surf	-11.902
▁Mira	-11.902
▁exceptional	-11.9023
▁recycle	-11.9023
▁encountered	-11.9024
▁shred	-11.9029
▁scratching	-11.9033
solv	-11.9038
▁fictional	-11.904
categori	-11.9041
▁mock	-11.9041
▁Michel	-11.9042
▁Fast	-11.9043
▁Belgian	-11.9044
▁Morocco	-11.9044
▁cylinder	-11.9044
▁reflex	-11.9044
▁microbes	-11.9044
▁embryo	-11.9044
▁premise	-11.9044
▁Text	-11.9045
▁faction	-11.9046
▁Bennet	-11.9046
▁Newton	-11.9049
▁Bin	-11.905
▁unsure	-11.9051
▁respected	-11.9052
▁360	-11.9056
▁Hung	-11.9057
▁outward	-11.9058
III	-11.9061
▁Fear	-11.9065
▁Alzheimer	-11.9072
▁harbor	-11.9072
▁Screen	-11.9072
▁NATO	-11.9072
▁blink	-11.9072
frame	-11.9073
▁lesion	-11.9075
▁Quan	-11.9075
hoe	-11.9075
▁slap	-11.9076
▁Multi	-11.9078
▁deaf	-11.908
vari	-11.9085
▁Mission	-11.9088
▁Sid	-11.9091
▁mathematician	-11.9099
▁premature	-11.9099
▁initiate	-11.9102
▁dependence	-11.9102
▁SC	-11.9103
▁considerably	-11.9103
▁Cancer	-11.9107
▁Forget	-11.9111
▁Ugandan	-11.9116
▁deployed	-11.9118
▁dismissed	-11.9125
▁radiat	-11.9126
▁Agriculture	-11.9127
▁Wrocław	-11.9127
▁Sherlock	-11.9127
▁Blanc	-11.9128
UN	-11.9129
▁switched	-11.913
▁True	-11.9132
▁specialty	-11.9133
emon	-11.9136
▁rug	-11.9142
▁Oz	-11.9148
▁perfection	-11.9151
▁Aleppo	-11.9155
▁availability	-11.9155
▁breakthrough	-11.9155
▁hobbies	-11.9155
▁luminosity	-11.9155
▁reservation	-11.9155
▁disrespect	-11.9155
▁animated	-11.9155
▁rainfall	-11.9156
▁efficiently	-11.9157
▁Protection	-11.9158
▁1925	-11.9162
▁lessen	-11.9167
▁thorough	-11.9171
▁Marco	-11.9171
▁alcoholic	-11.9174
▁annually	-11.9174
rox	-11.9179
▁marijuana	-11.9183
▁unprecedented	-11.9183
▁Sex	-11.9184
▁tempted	-11.9184
synthesis	-11.9185
▁distribute	-11.9186
▁mango	-11.9188
▁reconstruction	-11.9188
▁Arte	-11.9191
▁Environmental	-11.9193
bury	-11.9197
genic	-11.9208
▁Bangladesh	-11.9211
▁Charlotte	-11.9211
▁Nicaragua	-11.9211
▁corticosteroid	-11.9211
▁communicating	-11.9211
▁drought	-11.9211
▁decoration	-11.9211
▁diaper	-11.9211
▁architectural	-11.9212
▁1921	-11.9215
▁accountable	-11.9216
roy	-11.9222
▁Brush	-11.9223
▁airway	-11.9229
▁Gru	-11.9232
▁ramp	-11.9234
▁Inside	-11.9239
▁athletic	-11.9239
▁precursor	-11.9239
▁unfair	-11.9239
▁exhausted	-11.9239
▁antibody	-11.924
▁projection	-11.9241
▁cooperative	-11.9241
▁Grey	-11.9242
▁algebra	-11.9243
▁Sca	-11.9243
▁80%	-11.9244
▁1%	-11.9245
▁bomber	-11.9256
▁listener	-11.9261
▁straw	-11.9268
▁graduation	-11.9268
▁prevail	-11.9268
▁fingerprint	-11.9268
▁uncover	-11.927
▁divine	-11.9271
▁shortcut	-11.9271
benz	-11.9272
▁tilt	-11.9275
▁Fitz	-11.9276
▁synthesized	-11.9282
▁begging	-11.9284
▁quicker	-11.9287
▁hurdle	-11.9296
▁Saigon	-11.9296
▁peppermint	-11.9296
▁Produce	-11.9296
▁wholesale	-11.9297
ethylene	-11.93
▁1917	-11.9301
▁Dominican	-11.9301
▁depart	-11.9302
▁melting	-11.9304
▁Luke	-11.9305
▁Divisione	-11.9309
▁thicker	-11.9311
▁fog	-11.9321
▁modify	-11.9323
▁Abraham	-11.9324
▁Michigan	-11.9324
▁warehouse	-11.9324
▁Maha	-11.9324
▁entities	-11.9324
▁pardon	-11.9325
▁hiring	-11.9327
▁Ghanaian	-11.933
▁Whoever	-11.9331
▁Block	-11.9332
▁voters	-11.9332
▁undo	-11.9333
▁guardian	-11.9338
▁audit	-11.9342
▁favorable	-11.9342
NH	-11.9342
amba	-11.9344
kowski	-11.9344
fle	-11.9344
isha	-11.9347
wei	-11.9347
▁Rey	-11.935
▁quin	-11.9351
gard	-11.9351
▁Bau	-11.9351
▁Avenue	-11.9353
▁Damascus	-11.9353
▁convincing	-11.9353
▁destructive	-11.9353
▁lithium	-11.9353
▁Document	-11.9353
▁ecological	-11.9353
▁navy	-11.9353
▁Policy	-11.9353
▁biopsy	-11.9353
▁Bernard	-11.9354
genesis	-11.9356
▁1913	-11.9357
▁Bert	-11.9361
▁Scar	-11.9361
▁Beck	-11.9368
▁110	-11.937
▁Been	-11.9373
▁140	-11.9375
▁pine	-11.9379
700	-11.9379
IR	-11.938
▁Buddhism	-11.9381
▁Stanisław	-11.9381
▁philosophical	-11.9381
▁washcloth	-11.9381
▁departure	-11.9382
▁warts	-11.9382
▁DJ	-11.9382
▁donated	-11.9382
etti	-11.9383
▁instructor	-11.9384
methyl	-11.9385
▁euro	-11.9385
girl	-11.9386
dorf	-11.9388
▁tapping	-11.9389
▁Kwa	-11.9392
Na	-11.9392
▁Thor	-11.9393
▁inherited	-11.9394
▁Ruth	-11.9395
▁systemic	-11.9395
▁Carrie	-11.9406
ngel	-11.9406
▁illnesses	-11.9407
▁antibodies	-11.941
▁disposal	-11.941
▁neutron	-11.941
▁unsuccessful	-11.941
▁wreck	-11.941
▁fortress	-11.941
▁Explain	-11.941
▁lifted	-11.9411
▁notebook	-11.9411
▁Primary	-11.9412
ovich	-11.9414
▁travelled	-11.9417
▁verify	-11.942
▁marginal	-11.9423
▁novelist	-11.9426
plasm	-11.9428
▁ignoring	-11.9439
▁penetrate	-11.9439
▁physiological	-11.9439
▁shaft	-11.9441
▁130	-11.9441
EP	-11.9446
polar	-11.9452
▁reminded	-11.9453
▁Train	-11.9453
mother	-11.9455
▁extraction	-11.9456
▁imagery	-11.9464
amphetamine	-11.9468
▁Senegal	-11.9468
▁Finance	-11.9468
▁Douglas	-11.9468
▁mankind	-11.9468
▁reproductive	-11.947
▁accurately	-11.9473
▁guaranteed	-11.9478
▁punished	-11.9483
▁rod	-11.9487
▁Bond	-11.9488
▁fuse	-11.9493
450	-11.9494
▁constrain	-11.9495
▁Anthony	-11.9497
▁Sławno	-11.9497
▁volcanic	-11.9497
communica	-11.9497
▁bipolar	-11.9497
▁precision	-11.9498
▁Orange	-11.95
▁boiled	-11.9501
azol	-11.9503
▁shocked	-11.9507
▁lick	-11.9508
▁privately	-11.9509
bru	-11.9513
▁Kol	-11.9516
child	-11.9518
4,000	-11.9521
▁Build	-11.9523
▁seized	-11.9524
▁Atlanta	-11.9525
▁Firefox	-11.9525
▁abundance	-11.9525
▁protagonist	-11.9525
▁skeptic	-11.9525
▁soundtrack	-11.9525
▁overlook	-11.9526
▁entity	-11.9526
▁Marx	-11.9527
▁Teach	-11.953
▁Potter	-11.9531
scape	-11.9533
plan	-11.9533
▁nodes	-11.9534
▁Nah	-11.9539
▁Village	-11.954
Ne	-11.9541
▁outstanding	-11.9545
▁vascular	-11.9548
▁continuously	-11.9551
▁curiosity	-11.9555
▁immortal	-11.9555
▁accessories	-11.9555
▁Laurel	-11.9555
▁flexibility	-11.9555
▁dread	-11.9556
▁Training	-11.9557
▁traitor	-11.9558
▁Henri	-11.9558
▁discard	-11.9559
▁cement	-11.9562
née	-11.9565
oxin	-11.9574
▁coating	-11.9579
▁posit	-11.958
anów	-11.9583
▁Kaliningrad	-11.9584
▁faculty	-11.9584
▁inferior	-11.9584
▁Wonder	-11.9586
▁portrayed	-11.9586
▁chores	-11.9587
▁declare	-11.9587
▁extinction	-11.9589
▁nitrate	-11.9591
▁Lion	-11.9593
erie	-11.96
▁Sau	-11.9602
PT	-11.9604
▁undermine	-11.9604
▁footballer	-11.9611
▁Software	-11.9613
▁evident	-11.9613
▁marathon	-11.9613
▁occurrence	-11.9613
WHO	-11.9613
▁interference	-11.9614
▁appreciation	-11.9614
▁fetch	-11.9614
▁Holi	-11.9618
▁conform	-11.962
crim	-11.9623
▁pollen	-11.9624
▁Table	-11.9625
▁geographical	-11.9628
▁Telescope	-11.9642
▁eyebrow	-11.9642
▁loneliness	-11.9642
▁tribute	-11.9642
▁fiscal	-11.9642
▁whistle	-11.9642
▁pension	-11.9643
▁Transport	-11.9644
▁obey	-11.9644
▁Baltic	-11.9647
master	-11.9649
▁guided	-11.965
▁Wiel	-11.9656
▁Kafr	-11.9656
flies	-11.9664
▁Liu	-11.9668
▁hallucination	-11.9672
▁hormonal	-11.9672
▁triumph	-11.9672
▁ensuring	-11.9672
▁microphone	-11.9672
treat	-11.9678
dai	-11.9681
glass	-11.9685
▁seizure	-11.9688
▁USD	-11.9693
▁realizing	-11.9695
▁Experiment	-11.9701
▁memorial	-11.9701
▁Exchange	-11.9701
▁radial	-11.9701
▁defining	-11.9701
▁Heaven	-11.9701
▁detach	-11.9702
▁Perform	-11.9703
▁Deal	-11.9708
▁roommate	-11.971
▁Whit	-11.9713
▁Tree	-11.9714
▁Lily	-11.9718
▁regulated	-11.9721
▁planner	-11.9723
▁Herschel	-11.9731
▁uncommon	-11.9731
▁provoke	-11.9731
▁combining	-11.9731
▁deemed	-11.9731
▁Dennis	-11.9731
▁mourn	-11.9731
▁Joan	-11.9731
▁flourish	-11.9733
▁requirement	-11.9734
▁1923	-11.9734
ilia	-11.9744
▁Cambodian	-11.9749
osta	-11.9749
▁Kiss	-11.9753
▁zip	-11.9753
▁Vladimir	-11.976
▁lavender	-11.976
▁aerobic	-11.976
▁arteries	-11.9761
▁fungus	-11.9761
▁refract	-11.9761
▁supernova	-11.9761
▁motivate	-11.9765
▁spotted	-11.9772
-20	-11.9773
▁Champion	-11.9778
▁refined	-11.9782
▁secretion	-11.9785
▁Lau	-11.9785
▁harass	-11.9789
▁Alcohol	-11.979
▁Barcelona	-11.979
▁Renaissance	-11.979
▁ambitious	-11.979
▁sausage	-11.979
▁dragged	-11.979
▁Kelly	-11.979
▁kilogram	-11.979
▁Study	-11.9791
▁swap	-11.9792
▁utter	-11.9792
▁peptide	-11.9793
▁layout	-11.9793
▁1931	-11.9793
▁Tunisian	-11.9802
▁Socialist	-11.9808
▁warmth	-11.9811
Vi	-11.9813
▁hazard	-11.9819
▁estradiol	-11.982
▁exoplanet	-11.982
▁incidence	-11.982
▁vendor	-11.982
▁veterinary	-11.982
▁supervisor	-11.982
▁cider	-11.982
▁Libya	-11.9822
▁approve	-11.9824
▁lease	-11.9826
plane	-11.983
▁Bai	-11.9831
zzi	-11.9832
▁Originally	-11.9833
after	-11.9839
▁collectively	-11.9847
▁annoy	-11.9849
▁Schedule	-11.985
▁diffuse	-11.985
▁cherry	-11.985
▁acclaim	-11.985
▁retrieve	-11.985
▁vegan	-11.985
▁Limited	-11.9851
}}	-11.9851
▁stare	-11.9852
▁depicted	-11.9853
▁adhere	-11.9853
taking	-11.9854
▁paperwork	-11.9854
▁Compare	-11.9855
▁Sugar	-11.9857
▁advertisement	-11.9858
▁yelling	-11.9864
▁Jamaican	-11.9865
▁Stir	-11.9869
enko	-11.9871
▁Author	-11.9878
▁progression	-11.9878
▁meteor	-11.9879
▁acoustic	-11.988
▁paradox	-11.988
▁prostitute	-11.988
▁sprinkle	-11.988
▁threshold	-11.988
▁autonomy	-11.988
▁equator	-11.988
▁absent	-11.988
▁goddess	-11.988
▁generating	-11.9881
▁imprisonment	-11.9881
▁residential	-11.9881
▁Teacher	-11.9882
▁Lauren	-11.9885
especially	-11.9885
▁Independent	-11.9886
▁Baker	-11.9888
▁strengthening	-11.9888
▁reserved	-11.9889
▁sac	-11.989
▁detector	-11.9894
▁oz	-11.9896
▁Babylon	-11.9897
▁robotic	-11.9903
▁Original	-11.9905
▁unity	-11.9906
▁tenth	-11.9909
▁antioxidant	-11.991
▁coordination	-11.991
▁shrimp	-11.991
▁Finland	-11.991
▁Shadow	-11.991
▁Cameron	-11.9911
▁intervene	-11.9912
▁citizenship	-11.9912
▁Math	-11.9912
▁solvent	-11.9912
▁Saw	-11.9913
free	-11.9916
▁Angela	-11.9919
Fi	-11.992
base	-11.9921
▁transported	-11.9925
▁reconstruct	-11.9936
▁Parker	-11.9937
▁hacker	-11.9937
▁diuretic	-11.994
symmetry	-11.994
▁ibuprofen	-11.994
▁progesterone	-11.994
▁iodine	-11.994
▁Holmes	-11.9941
scopic	-11.9941
▁thunder	-11.9941
▁Garcia	-11.9941
PV	-11.9942
▁1926	-11.9944
▁disappoint	-11.9944
▁vanish	-11.9945
▁quitting	-11.9947
▁Boss	-11.9951
▁justify	-11.9958
diol	-11.9961
▁2.0	-11.997
floxacin	-11.9971
▁Neptune	-11.9971
▁Suppose	-11.9971
▁aggregate	-11.9971
▁educator	-11.9971
▁rebellion	-11.9971
▁renowned	-11.9971
▁squash	-11.9971
▁ribbon	-11.9971
▁Namibia	-11.9971
▁buzz	-11.9971
▁crypt	-11.9972
▁snip	-11.9973
▁Replace	-11.9975
▁Prison	-11.9975
▁40%	-11.9976
▁bolt	-11.9977
social	-11.9977
▁Track	-11.9977
▁counseling	-11.9983
▁irritated	-11.9983
▁Legal	-11.9985
▁Cooper	-11.9992
▁extinct	-11.9996
▁topped	-11.9997
due	-11.9999
▁astronomy	-12.0001
▁eternal	-12.0001
▁generator	-12.0002
▁Popular	-12.0002
▁disconnect	-12.0002
uce	-12.0002
▁heartbeat	-12.0003
▁copyright	-12.0003
force	-12.0007
▁MRI	-12.0009
▁journalism	-12.001
▁pigment	-12.0012
▁Dung	-12.002
▁inserted	-12.003
body	-12.0031
widwin	-12.0032
▁Houston	-12.0032
▁uterus	-12.0032
▁Parties	-12.0037
▁robbery	-12.0038
▁sponsored	-12.004
▁messy	-12.0041
▁Woo	-12.0043
▁chewing	-12.0046
OK	-12.0051
ario	-12.0052
▁remover	-12.0056
▁shipment	-12.0057
cele	-12.0058
▁cultivar	-12.0062
▁enabling	-12.0062
▁prosecution	-12.0062
▁relating	-12.0062
▁omega	-12.0062
▁Anybody	-12.0063
▁Option	-12.0066
▁MIT	-12.0066
▁differentiate	-12.0069
0%	-12.0069
▁merit	-12.0073
father	-12.0074
▁phosphate	-12.0076
▁hay	-12.008
▁Malay	-12.008
▁insisted	-12.0081
▁0.3	-12.0082
GB	-12.0084
▁bothering	-12.0089
▁blessing	-12.009
▁Engine	-12.0093
▁ADHD	-12.0093
▁hurricane	-12.0093
▁demographic	-12.0093
▁surpass	-12.0093
▁Johann	-12.0093
▁clash	-12.0095
structure	-12.0099
▁Money	-12.01
▁Kro	-12.0103
▁rage	-12.0105
▁objection	-12.0107
▁allegedly	-12.011
▁clearance	-12.0111
▁maximize	-12.0113
note	-12.0114
▁Rank	-12.0116
▁Qi	-12.0117
▁Expo	-12.0123
▁Citizen	-12.0124
▁cautious	-12.0124
▁helmet	-12.0124
▁Combine	-12.0128
▁Elena	-12.0128
▁3.5	-12.0129
▁911	-12.0129
▁injected	-12.0129
▁Marcus	-12.0131
ologic	-12.0131
▁Louise	-12.0131
▁Minor	-12.0134
▁nutritional	-12.0145
▁Andrea	-12.0152
abbreviated	-12.0154
▁Municipal	-12.0154
▁Discuss	-12.0155
▁coincide	-12.0155
▁dictatorship	-12.0155
▁spur	-12.0156
calc	-12.0157
▁Gather	-12.016
▁Speaking	-12.016
▁mites	-12.0161
▁shipped	-12.0161
▁dresses	-12.0164
▁stance	-12.0164
esis	-12.0166
eira	-12.0168
▁penal	-12.0172
nau	-12.0177
▁nutrient	-12.0185
▁Depression	-12.0185
▁Phoenix	-12.0185
▁immense	-12.0185
▁preliminary	-12.0185
▁suicidal	-12.0185
▁contaminated	-12.0185
▁replicate	-12.0186
▁oath	-12.0189
▁foolish	-12.0189
▁Locate	-12.0189
▁Sav	-12.0191
▁withdrawn	-12.0193
▁raped	-12.0197
▁Cir	-12.0199
▁fundamentally	-12.0204
pril	-12.0207
▁commissioned	-12.0208
▁Fourth	-12.021
▁Que	-12.0215
▁nostril	-12.0216
▁nebula	-12.0217
▁autism	-12.0217
▁Empress	-12.0218
▁rigid	-12.0218
▁bounce	-12.0218
▁Liberation	-12.022
▁minus	-12.0221
▁70%	-12.0221
Script	-12.0228
▁cleanse	-12.0238
▁Earl	-12.024
▁Prussia	-12.024
▁4,000	-12.0245
▁Bartoszyce	-12.0248
▁avocado	-12.0248
▁clarify	-12.0248
▁massacre	-12.0248
▁Larry	-12.0248
▁heavier	-12.0248
▁Marc	-12.0248
▁spelling	-12.0248
▁mythology	-12.0249
▁Theater	-12.025
▁Section	-12.0252
▁frankly	-12.0253
ometer	-12.0253
valent	-12.0254
OM	-12.0259
▁assured	-12.0259
▁suited	-12.026
▁halo	-12.0261
kowo	-12.0266
▁Buck	-12.027
▁extensively	-12.0278
▁Democracy	-12.0279
▁Effect	-12.0279
▁Ultimate	-12.0279
▁dissident	-12.0279
▁wheelchair	-12.0279
▁Uprising	-12.0279
▁accusation	-12.0279
▁delusion	-12.0279
▁sterile	-12.0279
▁Harvey	-12.0279
▁forbidden	-12.0279
▁tempting	-12.0281
▁staple	-12.0282
▁retention	-12.0283
▁CCP	-12.0286
▁Rican	-12.0293
▁Lenin	-12.0297
▁defendant	-12.0298
Ki	-12.03
▁reactor	-12.0301
volution	-12.0303
ifer	-12.0306
▁tuck	-12.0306
▁Castro	-12.0307
tribution	-12.0308
▁Nacional	-12.031
▁astronaut	-12.031
▁therapies	-12.031
▁Cameroon	-12.031
▁Gdańsk	-12.031
▁insecticide	-12.031
activate	-12.031
▁niece	-12.031
▁analogue	-12.0311
▁basal	-12.0311
horn	-12.0313
▁Pier	-12.0314
▁resemble	-12.0314
▁Kirk	-12.0314
▁Goals	-12.0316
▁Edition	-12.0317
▁fungi	-12.0321
▁overlap	-12.0323
▁Workers	-12.0325
▁Copy	-12.0336
▁Gan	-12.034
▁cucumber	-12.0342
▁Hurry	-12.0342
▁casino	-12.0343
▁disappointment	-12.0345
fact	-12.0345
▁Jiang	-12.0345
▁vitro	-12.0346
▁outrage	-12.0348
▁Skip	-12.0348
▁remainder	-12.0349
Russian	-12.035
▁finest	-12.0352
▁lenses	-12.0354
▁Jung	-12.0355
lou	-12.0357
▁teaches	-12.0362
▁affirm	-12.0363
▁carbonate	-12.0364
▁hid	-12.0369
▁prejudice	-12.0373
▁Norwegian	-12.0373
▁Caesar	-12.0373
▁Berg	-12.0375
▁obsession	-12.0376
▁phobia	-12.0379
▁160	-12.0383
normal	-12.0383
uga	-12.039
▁Similar	-12.0393
▁Chess	-12.04
▁rim	-12.0401
▁weaker	-12.0401
hof	-12.0403
▁Frederick	-12.0405
▁autonomous	-12.0405
▁doctrine	-12.0405
▁suspension	-12.0405
▁judging	-12.0405
▁organised	-12.0406
▁mindfulness	-12.0407
▁defender	-12.0413
▁decorated	-12.0415
assi	-12.0415
▁mindset	-12.0417
▁compromised	-12.0419
▁faithful	-12.0419
▁Julia	-12.042
pass	-12.0421
▁collector	-12.0422
▁Greater	-12.0423
osi	-12.0423
▁cling	-12.0427
▁Peak	-12.0431
▁abundant	-12.0437
▁intimacy	-12.0437
▁legislature	-12.0437
▁supplied	-12.0437
▁vocabulary	-12.0437
▁Nelson	-12.0437
▁Cardinal	-12.0437
▁Dinh	-12.0437
▁Stanford	-12.0437
▁literacy	-12.0437
▁constraints	-12.0439
▁ninth	-12.0439
▁Lucy	-12.0443
▁textile	-12.0445
▁brightness	-12.0447
▁comedian	-12.0453
▁Environment	-12.0458
▁Kang	-12.0458
▁Shaw	-12.0465
▁Caracas	-12.0468
▁Precededby	-12.0468
▁pediatric	-12.0468
▁prestigious	-12.0468
▁specimen	-12.0468
▁Diploma	-12.0469
vocation	-12.0469
▁migrate	-12.0469
▁shiny	-12.047
▁chopped	-12.047
▁Scottish	-12.0471
▁subtract	-12.0471
▁Percy	-12.0472
▁HR	-12.0474
Bu	-12.0476
▁Secondary	-12.0477
wear	-12.0487
▁lb	-12.0497
▁instrumental	-12.0498
▁expelled	-12.05
▁sqmi	-12.05
▁nonsense	-12.05
Whenever	-12.0501
▁Storm	-12.0501
▁Valentin	-12.0501
▁ladder	-12.0502
▁mounted	-12.0506
▁reply	-12.0511
▁Host	-12.0515
inator	-12.0519
▁antipsychotic	-12.0532
▁Enjoy	-12.0532
▁Kyoto	-12.0532
▁cabbage	-12.0532
▁ultrasound	-12.0532
▁lunar	-12.0533
▁Moore	-12.0534
▁fungal	-12.0535
▁platelet	-12.0535
▁authorized	-12.0541
HP	-12.0553
▁lobe	-12.0558
▁stretches	-12.0558
▁Armed	-12.056
▁Olive	-12.0563
▁enthusiast	-12.0565
▁hemisphere	-12.0565
▁grammar	-12.0565
▁Apollo	-12.0565
▁Fiona	-12.0566
▁Delhi	-12.0566
▁favourite	-12.0566
▁trafficking	-12.0567
▁intercept	-12.0567
▁suite	-12.0568
▁Moses	-12.0569
▁haircut	-12.0572
oshi	-12.0578
▁conserv	-12.0581
▁machinery	-12.0591
kka	-12.0593
▁noticeable	-12.0594
▁Zimbabwe	-12.0597
▁cliff	-12.0597
▁glacier	-12.0597
▁Reserve	-12.0597
▁fierce	-12.0597
▁Application	-12.0597
▁exhale	-12.0597
▁Future	-12.0599
▁Spider	-12.0599
▁eject	-12.06
▁Carmen	-12.0605
▁lipo	-12.0605
profit	-12.0605
▁subway	-12.0607
▁Franklin	-12.0608
▁portable	-12.0613
▁tortured	-12.0614
smith	-12.0616
▁continental	-12.0622
▁Pru	-12.0623
boat	-12.0626
tention	-12.0626
▁dime	-12.0626
cross	-12.0629
▁Hamilton	-12.0629
▁Bydgoszcz	-12.0629
▁Protestant	-12.0629
▁Summit	-12.0629
▁astronomical	-12.0629
▁conspiracy	-12.0629
▁dermatologist	-12.0629
▁immunity	-12.0629
▁optimistic	-12.0629
▁nineteen	-12.0629
▁Morning	-12.0633
▁ranch	-12.0633
▁regulatory	-12.0635
▁Laos	-12.0638
▁incorporat	-12.0639
cultural	-12.0639
ophy	-12.0639
▁scrape	-12.064
▁endangered	-12.064
▁overhead	-12.0644
▁poisoned	-12.0644
▁Labor	-12.0646
▁Drag	-12.0647
FL	-12.0648
bber	-12.066
▁patented	-12.0661
▁mortal	-12.0661
▁edited	-12.0662
▁Lebanon	-12.0662
▁analgesic	-12.0662
▁fifty	-12.0662
▁fountain	-12.0662
▁Russell	-12.0662
▁lesbian	-12.0662
▁cramps	-12.0662
▁functionality	-12.0668
▁Bella	-12.0672
step	-12.0674
▁scattered	-12.0676
▁sweater	-12.0686
▁capita	-12.0686
▁Shortly	-12.0688
flam	-12.0691
▁Christopher	-12.0694
▁Gryfice	-12.0694
▁adolescent	-12.0694
▁iCloud	-12.0694
▁registration	-12.0694
▁hollow	-12.0694
▁Method	-12.0694
▁gossip	-12.0694
▁username	-12.0695
▁Wrap	-12.0695
phor	-12.0698
▁visualize	-12.0704
culture	-12.0707
anza	-12.0708
▁soaked	-12.071
▁Nang	-12.0711
▁pity	-12.0715
▁someplace	-12.0719
▁Cabinet	-12.0727
▁compensation	-12.0727
▁confusing	-12.0727
▁eclipse	-12.0727
▁Falcon	-12.0727
▁squat	-12.0727
▁quart	-12.0728
▁Various	-12.0728
▁footprint	-12.0728
▁$10	-12.0729
▁cardboard	-12.0731
▁simplest	-12.0732
▁Initially	-12.0733
▁Algerian	-12.0733
▁swell	-12.0736
written	-12.0738
One	-12.074
[...]
